{
  "version": "1.0",
  "truncation": null,
  "padding": null,
  "added_tokens": [
    {
      "id": 0,
      "content": "[UNK]",
      "single_word": false,
      "lstrip": false,
      "rstrip": false,
      "normalized": false,
      "special": true
    },
    {
      "id": 1,
      "content": "[CLS]",
      "single_word": false,
      "lstrip": false,
      "rstrip": false,
      "normalized": false,
      "special": true
    },
    {
      "id": 2,
      "content": "[SEP]",
      "single_word": false,
      "lstrip": false,
      "rstrip": false,
      "normalized": false,
      "special": true
    },
    {
      "id": 3,
      "content": "[PAD]",
      "single_word": false,
      "lstrip": false,
      "rstrip": false,
      "normalized": false,
      "special": true
    },
    {
      "id": 4,
      "content": "[MASK]",
      "single_word": false,
      "lstrip": false,
      "rstrip": false,
      "normalized": false,
      "special": true
    }
  ],
  "normalizer": null,
  "pre_tokenizer": {
    "type": "Whitespace"
  },
  "post_processor": null,
  "decoder": null,
  "model": {
    "type": "BPE",
    "dropout": null,
    "unk_token": "[UNK]",
    "continuing_subword_prefix": null,
    "end_of_word_suffix": null,
    "fuse_unk": false,
    "byte_fallback": false,
    "vocab": {
      "[UNK]": 0,
      "[CLS]": 1,
      "[SEP]": 2,
      "[PAD]": 3,
      "[MASK]": 4,
      "\"": 5,
      "%": 6,
      "(": 7,
      ")": 8,
      "+": 9,
      ",": 10,
      "-": 11,
      ".": 12,
      "/": 13,
      "0": 14,
      "1": 15,
      "2": 16,
      "3": 17,
      "4": 18,
      "5": 19,
      "6": 20,
      "7": 21,
      "8": 22,
      "9": 23,
      ":": 24,
      ";": 25,
      "=": 26,
      "A": 27,
      "B": 28,
      "C": 29,
      "D": 30,
      "E": 31,
      "F": 32,
      "G": 33,
      "H": 34,
      "I": 35,
      "K": 36,
      "L": 37,
      "M": 38,
      "N": 39,
      "O": 40,
      "P": 41,
      "R": 42,
      "S": 43,
      "T": 44,
      "U": 45,
      "V": 46,
      "W": 47,
      "X": 48,
      "Y": 49,
      "Z": 50,
      "[": 51,
      "]": 52,
      "_": 53,
      "a": 54,
      "b": 55,
      "c": 56,
      "d": 57,
      "e": 58,
      "f": 59,
      "g": 60,
      "h": 61,
      "i": 62,
      "j": 63,
      "k": 64,
      "l": 65,
      "m": 66,
      "n": 67,
      "o": 68,
      "p": 69,
      "q": 70,
      "r": 71,
      "s": 72,
      "t": 73,
      "u": 74,
      "v": 75,
      "w": 76,
      "x": 77,
      "y": 78,
      "z": 79,
      "~": 80,
      "°": 81,
      "Å": 82,
      "on": 83,
      "le": 84,
      "th": 85,
      "ond": 86,
      "bond": 87,
      "in": 88,
      "len": 89,
      "to": 90,
      "is": 91,
      "re": 92,
      "te": 93,
      "tr": 94,
      "one": 95,
      "an": 96,
      "iv": 97,
      "and": 98,
      "ge": 99,
      "qu": 100,
      "alen": 101,
      "equ": 102,
      "ivalen": 103,
      "equivalen": 104,
      "equivalent": 105,
      "he": 106,
      ")-": 107,
      "gth": 108,
      "length": 109,
      "ed": 110,
      "me": 111,
      "The": 112,
      "ato": 113,
      "atom": 114,
      "bonded": 115,
      "ome": 116,
      "try": 117,
      "geome": 118,
      "geometry": 119,
      "ree": 120,
      "),": 121,
      "three": 122,
      "or": 123,
      "si": 124,
      "ou": 125,
      "the": 126,
      "al": 127,
      "are": 128,
      "In": 129,
      "site": 130,
      "ing": 131,
      "atoms": 132,
      "ate": 133,
      "co": 134,
      "fou": 135,
      "four": 136,
      "st": 137,
      "din": 138,
      "ordin": 139,
      "coordin": 140,
      "coordinate": 141,
      "Al": 142,
      "sing": 143,
      "single": 144,
      "lengths": 145,
      "There": 146,
      "ter": 147,
      "ze": 148,
      "onal": 149,
      "ce": 150,
      "tw": 151,
      "sh": 152,
      "li": 153,
      "two": 154,
      "sp": 155,
      "ace": 156,
      "dis": 157,
      "All": 158,
      "alli": 159,
      "ry": 160,
      "rou": 161,
      "cry": 162,
      "grou": 163,
      "stalli": 164,
      "zes": 165,
      "space": 166,
      "crystalli": 167,
      "group": 168,
      "crystallizes": 169,
      "cl": 170,
      "ted": 171,
      "ct": 172,
      "tor": 173,
      "distor": 174,
      "distorted": 175,
      "tri": 176,
      "ure": 177,
      "ger": 178,
      "lon": 179,
      "orter": 180,
      "shorter": 181,
      "longer": 182,
      "gonal": 183,
      "str": 184,
      "uct": 185,
      "ucture": 186,
      "structure": 187,
      ".\"": 188,
      "trigonal": 189,
      "us": 190,
      "ir": 191,
      "3m": 192,
      "se": 193,
      "clus": 194,
      "cluster": 195,
      "R3m": 196,
      "Mg": 197,
      "Co": 198,
      "Zr": 199,
      "Cu": 200,
      "fir": 201,
      "first": 202,
      "cond": 203,
      "second": 204,
      "inequivalent": 205,
      "sites": 206,
      "Ti": 207,
      "Fe": 208,
      "of": 209,
      "Hf": 210,
      "Ni": 211,
      "Nb": 212,
      "La": 213,
      "Ta": 214,
      "Sn": 215,
      "ro": 216,
      "Pd": 217,
      "Ca": 218,
      "Sc": 219,
      "Li": 220,
      "Pt": 221,
      "ic": 222,
      "Ag": 223,
      "Pb": 224,
      "Cd": 225,
      "Sr": 226,
      "Mn": 227,
      "Au": 228,
      "Rh": 229,
      "Ba": 230,
      "Bi": 231,
      "Mo": 232,
      "Na": 233,
      "Tl": 234,
      "Zn": 235,
      "Ru": 236,
      "di": 237,
      "Ir": 238,
      "Tc": 239,
      "Hg": 240,
      "Os": 241,
      "Re": 242,
      "Cr": 243,
      "Ga": 244,
      "ar": 245,
      "con": 246,
      "sis": 247,
      "ts": 248,
      "consis": 249,
      "consists": 250,
      "dime": 251,
      "nsi": 252,
      "dimensi": 253,
      "dimensional": 254,
      "zero": 255,
      "Si": 256,
      "Be": 257,
      "structured": 258,
      "inic": 259,
      "clinic": 260,
      "ra": 261,
      "Sb": 262,
      "Te": 263,
      "Ge": 264,
      "er": 265,
      "Se": 266,
      "10": 267,
      "clusters": 268,
      "As": 269,
      "Br": 270,
      "Cl": 271,
      "11": 272,
      "cu": 273,
      "id": 274,
      "ner": 275,
      "cor": 276,
      "corner": 277,
      "ine": 278,
      "mon": 279,
      "six": 280,
      "mono": 281,
      "line": 282,
      "linear": 283,
      "monoclinic": 284,
      "hed": 285,
      "ahed": 286,
      "Cm": 287,
      "ahedra": 288,
      "70": 289,
      "12": 290,
      "mid": 291,
      "py": 292,
      "ramid": 293,
      "pyramid": 294,
      "for": 295,
      "form": 296,
      "triclinic": 297,
      "ith": 298,
      "with": 299,
      "en": 300,
      "cub": 301,
      "shar": 302,
      "sharing": 303,
      "oct": 304,
      "pyramids": 305,
      "P1": 306,
      "octahedra": 307,
      "oth": 308,
      "Both": 309,
      "um": 310,
      "15": 311,
      "ch": 312,
      "14": 313,
      "69": 314,
      "72": 315,
      "ph": 316,
      "ach": 317,
      "each": 318,
      "ke": 319,
      "edge": 320,
      "ap": 321,
      "shap": 322,
      "shaped": 323,
      "71": 324,
      "like": 325,
      "cubic": 326,
      "mo": 327,
      "13": 328,
      "pha": 329,
      "ang": 330,
      "lecu": 331,
      "molecu": 332,
      "molecule": 333,
      "alpha": 334,
      "dy": 335,
      "thir": 336,
      "73": 337,
      "16": 338,
      "ody": 339,
      "red": 340,
      "body": 341,
      "nte": 342,
      "cente": 343,
      "centered": 344,
      "rom": 345,
      "agonal": 346,
      "tan": 347,
      "74": 348,
      "ent": 349,
      "xagonal": 350,
      "hexagonal": 351,
      "de": 352,
      "third": 353,
      "from": 354,
      "ad": 355,
      "ide": 356,
      "distan": 357,
      "rang": 358,
      "read": 359,
      "ces": 360,
      "spread": 361,
      "distances": 362,
      "ranging": 363,
      "17": 364,
      "18": 365,
      "ler": 366,
      "corners": 367,
      "75": 368,
      "molecules": 369,
      "76": 370,
      "bi": 371,
      "bent": 372,
      "gree": 373,
      "degree": 374,
      "degrees": 375,
      "19": 376,
      "20": 377,
      "He": 378,
      "78": 379,
      "usler": 380,
      "Heusler": 381,
      "gh": 382,
      "igh": 383,
      "90": 384,
      "77": 385,
      "99": 386,
      "79": 387,
      "21": 388,
      "22": 389,
      "23": 390,
      "00": 391,
      "80": 392,
      "eigh": 393,
      "81": 394,
      "24": 395,
      "82": 396,
      "91": 397,
      "83": 398,
      "der": 399,
      "ived": 400,
      "derived": 401,
      "84": 402,
      "92": 403,
      "Rb": 404,
      "85": 405,
      "01": 406,
      "tetr": 407,
      "02": 408,
      "93": 409,
      "25": 410,
      "Po": 411,
      "89": 412,
      "06": 413,
      "86": 414,
      "per": 415,
      "pper": 416,
      "fourth": 417,
      "07": 418,
      "04": 419,
      "94": 420,
      "bipyramids": 421,
      "05": 422,
      "08": 423,
      "enth": 424,
      "87": 425,
      "95": 426,
      "at": 427,
      "Copper": 428,
      "09": 429,
      "26": 430,
      "88": 431,
      "27": 432,
      "03": 433,
      "mi": 434,
      "28": 435,
      "Cs": 436,
      "tetrahedra": 437,
      "96": 438,
      "that": 439,
      "share": 440,
      "97": 441,
      "98": 442,
      "29": 443,
      "lan": 444,
      "30": 445,
      "dium": 446,
      "gen": 447,
      "ture": 448,
      "xture": 449,
      "mixture": 450,
      "31": 451,
      "32": 452,
      "cuboctahedra": 453,
      "33": 454,
      "Ce": 455,
      "48": 456,
      "ite": 457,
      "34": 458,
      "50": 459,
      "46": 460,
      "Er": 461,
      "edges": 462,
      "36": 463,
      "plan": 464,
      "planar": 465,
      "40": 466,
      "Sm": 467,
      "35": 468,
      "41": 469,
      "37": 470,
      "39": 471,
      "44": 472,
      "Dy": 473,
      "49": 474,
      "55": 475,
      "Gd": 476,
      "54": 477,
      "56": 478,
      "face": 479,
      "eight": 480,
      "47": 481,
      "45": 482,
      "57": 483,
      "42": 484,
      "Nd": 485,
      "63": 486,
      "38": 487,
      "62": 488,
      "64": 489,
      "65": 490,
      "Np": 491,
      "43": 492,
      "52": 493,
      "66": 494,
      "61": 495,
      "58": 496,
      "53": 497,
      "67": 498,
      "Ho": 499,
      "Lu": 500,
      "51": 501,
      "59": 502,
      "ti": 503,
      "60": 504,
      "68": 505,
      "fth": 506,
      "Tm": 507,
      "oride": 508,
      "el": 509,
      "150": 510,
      "twel": 511,
      "Pu": 512,
      "Pa": 513,
      "fi": 514,
      "ogen": 515,
      "loride": 516,
      "yan": 517,
      "hloride": 518,
      "Cyan": 519,
      "Chloride": 520,
      "Cyanogen": 521,
      "ium": 522,
      "Eu": 523,
      "Th": 524,
      "Indium": 525,
      "120": 526,
      "fifth": 527,
      "q6": 528,
      "til": 529,
      "ve": 530,
      "twelve": 531,
      "Cub": 532,
      "Pm": 533,
      "there": 534,
      "alt": 535,
      "ten": 536,
      "hal": 537,
      "half": 538,
      "wate": 539,
      "water": 540,
      "teenth": 541,
      "Pr": 542,
      "Yb": 543,
      "sixth": 544,
      "Tb": 545,
      "ck": 546,
      "venth": 547,
      "ot": 548,
      "alite": 549,
      "ock": 550,
      "Halite": 551,
      "Rock": 552,
      "Salt": 553,
      "faces": 554,
      "not": 555,
      "tilted": 556,
      ");": 557,
      "Ac": 558,
      "ane": 559,
      "Cubic": 560,
      "\"(": 561,
      "nine": 562,
      "seventh": 563,
      "O3": 564,
      "eighth": 565,
      "un": 566,
      "gs": 567,
      "ungs": 568,
      "ungsten": 569,
      "Ba2": 570,
      "cornercorner": 571,
      "xide": 572,
      "Zr2": 573,
      "ral": 574,
      "ahedral": 575,
      "Sr2": 576,
      "car": 577,
      "carb": 578,
      "Mg2": 579,
      "twent": 580,
      "La2": 581,
      "carbon": 582,
      "In2": 583,
      "monoxide": 584,
      "Sn2": 585,
      "Pb2": 586,
      "K2": 587,
      "Bi2": 588,
      "Tl2": 589,
      "Nb2": 590,
      "Si2": 591,
      "Sc2": 592,
      "Ti2": 593,
      "Hf2": 594,
      "ur": 595,
      "Al2": 596,
      "Tungsten": 597,
      "Li2": 598,
      "Te2": 599,
      "sa": 600,
      "Y2": 601,
      "Fe2": 602,
      "Au2": 603,
      "Cu2": 604,
      "Cd2": 605,
      "Na2": 606,
      "see": 607,
      "saw": 608,
      "Ag2": 609,
      "Sb2": 610,
      "lar": 611,
      "Cl2": 612,
      "V2": 613,
      "Pd2": 614,
      "Pt2": 615,
      "Ca2": 616,
      "Cubane": 617,
      "P2": 618,
      "Br2": 619,
      "Ta2": 620,
      "twenty": 621,
      "W2": 622,
      "inc": 623,
      "ular": 624,
      "rect": 625,
      "angular": 626,
      "rectangular": 627,
      "osp": 628,
      "phosp": 629,
      "phosph": 630,
      "ox": 631,
      "Mn2": 632,
      "octahedral": 633,
      "nin": 634,
      "ninth": 635,
      "Ni2": 636,
      "ne": 637,
      "Ge2": 638,
      "Hg2": 639,
      "Ga2": 640,
      "non": 641,
      "coplanar": 642,
      "oxy": 643,
      "N2": 644,
      "Co2": 645,
      "Se2": 646,
      "oxygen": 647,
      "As2": 648,
      "Fm": 649,
      "Mo2": 650,
      "Zn2": 651,
      "ero": 652,
      "Cr2": 653,
      "Rh2": 654,
      "kite": 655,
      "tenth": 656,
      "Os2": 657,
      "B2": 658,
      "Ir2": 659,
      "Pero": 660,
      "skite": 661,
      "vskite": 662,
      "Perovskite": 663,
      "fiv": 664,
      "five": 665,
      "Ru2": 666,
      "_0": 667,
      "be": 668,
      "Be2": 669,
      "Tc2": 670,
      "lerite": 671,
      "Spha": 672,
      "Zinc": 673,
      "blen": 674,
      "Sphalerite": 675,
      "Zincblen": 676,
      "Zincblende": 677,
      "bium": 678,
      "Ba3": 679,
      "mu": 680,
      "obium": 681,
      "ele": 682,
      "ta": 683,
      "K3": 684,
      "ll": 685,
      "Im": 686,
      "llur": 687,
      "Re2": 688,
      "les": 689,
      "angles": 690,
      "tilt": 691,
      "ven": 692,
      "beta": 693,
      "phosphide": 694,
      "O2": 695,
      "Sr3": 696,
      "adium": 697,
      "lluride": 698,
      "eleventh": 699,
      "bipyramid": 700,
      "La4": 701,
      "Ca3": 702,
      "alum": 703,
      "Au3": 704,
      "Pb3": 705,
      "fra": 706,
      "twelfth": 707,
      "seven": 708,
      "wor": 709,
      "mewor": 710,
      "framewor": 711,
      "framework": 712,
      "Y4": 713,
      "sium": 714,
      "nium": 715,
      "squ": 716,
      "square": 717,
      "Li3": 718,
      "Niobium": 719,
      "pyramidal": 720,
      "Na3": 721,
      "Bi3": 722,
      "hy": 723,
      "van": 724,
      "Pd3": 725,
      "vanadium": 726,
      "La3": 727,
      "High": 728,
      "K4": 729,
      "Pre": 730,
      "ss": 731,
      "Press": 732,
      "Pressure": 733,
      "--": 734,
      "Y3": 735,
      "hyd": 736,
      "Se3": 737,
      "dmu": 738,
      "Cadmu": 739,
      "Telluride": 740,
      "Cadmuum": 741,
      "Mg3": 742,
      "Sn3": 743,
      "Al3": 744,
      "Fe3": 745,
      "F3": 746,
      "Ca4": 747,
      "P3": 748,
      "ag": 749,
      "agne": 750,
      "Zn3": 751,
      "Cu3": 752,
      "am": 753,
      "Br3": 754,
      "°.": 755,
      "C2": 756,
      "Ag3": 757,
      "Hg3": 758,
      "Ni3": 759,
      "Hf3": 760,
      "Ga3": 761,
      "Pt3": 762,
      "Cd3": 763,
      "Rh3": 764,
      "thirteenth": 765,
      "Mn3": 766,
      "In3": 767,
      "iron": 768,
      "Sr4": 769,
      "Cl3": 770,
      "nic": 771,
      "Ge3": 772,
      "Zr3": 773,
      "Pb4": 774,
      "Ti3": 775,
      "Te3": 776,
      "fourteenth": 777,
      "Sn4": 778,
      "ran": 779,
      "Ta3": 780,
      "Si3": 781,
      "Nb3": 782,
      "yli": 783,
      "Mo3": 784,
      "Sc3": 785,
      "Sb3": 786,
      "Zr4": 787,
      "agnesium": 788,
      "As3": 789,
      "Co3": 790,
      "B3": 791,
      "V3": 792,
      "thium": 793,
      "lithium": 794,
      "O_": 795,
      "Zr_0": 796,
      "Ti_0": 797,
      "O_3": 798,
      "W3": 799,
      "Tl3": 800,
      "den": 801,
      "Be3": 802,
      "Bi4": 803,
      "fif": 804,
      "Fe4": 805,
      "Ir3": 806,
      "Os3": 807,
      "angane": 808,
      "anganese": 809,
      "O4": 810,
      "odium": 811,
      "bor": 812,
      "ni": 813,
      "kel": 814,
      "Mg4": 815,
      "Ba4": 816,
      "Na4": 817,
      "fifteenth": 818,
      "Tc3": 819,
      "manganese": 820,
      "hydro": 821,
      "ride": 822,
      "Cr3": 823,
      "nickel": 824,
      "up": 825,
      "Hf4": 826,
      "Sb4": 827,
      "Ru3": 828,
      "Sc4": 829,
      "Nb4": 830,
      "sixteenth": 831,
      "R3": 832,
      "alumin": 833,
      "Ti4": 834,
      "aa": 835,
      "traa": 836,
      "icup": 837,
      "Tetraa": 838,
      "uricup": 839,
      "Tetraauricup": 840,
      "Tetraauricupride": 841,
      "mol": 842,
      "balt": 843,
      "Os4": 844,
      "In4": 845,
      "Cd4": 846,
      "cobalt": 847,
      "Ta4": 848,
      "_x": 849,
      "Tl4": 850,
      "Hg_x": 851,
      "Hg_xSn": 852,
      "tetrahedral": 853,
      "teen": 854,
      "Re3": 855,
      "Pd4": 856,
      "chrom": 857,
      "chromium": 858,
      "Li4": 859,
      "tanium": 860,
      "Br4": 861,
      "P4": 862,
      "titanium": 863,
      "V4": 864,
      "henium": 865,
      "Mn4": 866,
      "Te4": 867,
      "insi": 868,
      "inside": 869,
      "Cu4": 870,
      "lu": 871,
      "Ni4": 872,
      "boron": 873,
      "W4": 874,
      "Pt4": 875,
      "Mo4": 876,
      "Co4": 877,
      "range": 878,
      "Al4": 879,
      "ylidy": 880,
      "H2": 881,
      "Ag4": 882,
      "seventeenth": 883,
      "allium": 884,
      "yb": 885,
      "Hg4": 886,
      "Ru4": 887,
      "molyb": 888,
      "Ir4": 889,
      "mium": 890,
      "denum": 891,
      "Cr4": 892,
      "molybdenum": 893,
      "eighteenth": 894,
      "ylidyne": 895,
      "Au4": 896,
      "tungsten": 897,
      "O5": 898,
      "Ge4": 899,
      "Rh4": 900,
      "Re4": 901,
      "B4": 902,
      "Si4": 903,
      "Tc4": 904,
      "rhenium": 905,
      "eth": 906,
      "idium": 907,
      "iridium": 908,
      "Se4": 909,
      "Ga4": 910,
      "As4": 911,
      "bis": 912,
      "bismu": 913,
      "magnesium": 914,
      "CaMg": 915,
      "HfZr": 916,
      "NaSr": 917,
      "TaNb": 918,
      "Cl4": 919,
      "selen": 920,
      "LiBa": 921,
      "mm": 922,
      "°.\"": 923,
      "WMo": 924,
      "YSc": 925,
      "Be4": 926,
      "C3": 927,
      "O6": 928,
      "YZr": 929,
      "germ": 930,
      "Zn4": 931,
      "as": 932,
      "LaTa": 933,
      "SrBe": 934,
      "YHf": 935,
      "edgeedge": 936,
      "tant": 937,
      "AgCd": 938,
      "tantalum": 939,
      "bismuth": 940,
      "anylidyne": 941,
      "H3": 942,
      "SrCa": 943,
      "LaZr": 944,
      "NbW": 945,
      "zinc": 946,
      "PtPd": 947,
      "CaSc": 948,
      "PbSn": 949,
      "arse": 950,
      "InAl": 951,
      "HfTi": 952,
      "cide": 953,
      "licide": 954,
      "7440": 955,
      "NbV": 956,
      "LaY": 957,
      "nineteenth": 958,
      "BaCa": 959,
      "BaMg": 960,
      "NbMo": 961,
      "TlIn": 962,
      "LiSr": 963,
      "diam": 964,
      "diamond": 965,
      "pl": 966,
      "HgZn": 967,
      "pot": 968,
      "potas": 969,
      "CuCd": 970,
      "LaSc": 971,
      "YTi": 972,
      "ty": 973,
      "SnBi": 974,
      "sil": 975,
      "AuCd": 976,
      "ScTa": 977,
      "ScHf": 978,
      "Gd2": 979,
      "ieth": 980,
      "ru": 981,
      "copper": 982,
      "GaPb": 983,
      "twentieth": 984,
      "BaSr": 985,
      "PdCd": 986,
      "tium": 987,
      "Magnesium": 988,
      "ZrV": 989,
      "NaCa": 990,
      "Er2": 991,
      "gallium": 992,
      "CuHg": 993,
      "LaHf": 994,
      "KSr": 995,
      "CuAl": 996,
      "NbRe": 997,
      "TlBi": 998,
      "BaBe": 999,
      "TlGa": 1000,
      "TcPd": 1001,
      "aluminium": 1002,
      "CuIn": 1003,
      "LiMg": 1004,
      "AgZn": 1005,
      "TcRu": 1006,
      "indium": 1007,
      "PtNi": 1008,
      "sodium": 1009,
      "CuPb": 1010,
      "ZrTa": 1011,
      "NaMg": 1012,
      "LaTi": 1013,
      "Hf12": 1014,
      "AgHg": 1015,
      "TcOs": 1016,
      "hydrogen": 1017,
      "thenium": 1018,
      "CrMn": 1019,
      "RuNi": 1020,
      "SrMg": 1021,
      "ReOs": 1022,
      "NbOs": 1023,
      "lor": 1024,
      "ol": 1025,
      "niobium": 1026,
      "GaBi": 1027,
      "AlSn": 1028,
      "AuIn": 1029,
      "RhZn": 1030,
      "NbCo": 1031,
      "AgIn": 1032,
      "RhPd": 1033,
      "CuSn": 1034,
      "TcCo": 1035,
      "CrOs": 1036,
      "CaBe": 1037,
      "KMg": 1038,
      "chlor": 1039,
      "atin": 1040,
      "platin": 1041,
      "yt": 1042,
      "zir": 1043,
      "conium": 1044,
      "ruthenium": 1045,
      "zirconium": 1046,
      "WRe": 1047,
      "CdZn": 1048,
      "ScZr": 1049,
      "hodium": 1050,
      "TlPb": 1051,
      "WTc": 1052,
      "sc": 1053,
      "LaV": 1054,
      "RhAu": 1055,
      "MoOs": 1056,
      "Ce2": 1057,
      "flu": 1058,
      "TlSn": 1059,
      "IrCo": 1060,
      "lane": 1061,
      "potassium": 1062,
      "YCr": 1063,
      "gam": 1064,
      "HgIn": 1065,
      "GaSn": 1066,
      "YTa": 1067,
      "AlBi": 1068,
      "CuZn": 1069,
      "TiRe": 1070,
      "YV": 1071,
      "PtIn": 1072,
      "AlPb": 1073,
      "PtAu": 1074,
      "aluminum": 1075,
      "trium": 1076,
      "NaLi": 1077,
      "yttrium": 1078,
      "N3": 1079,
      "WOs": 1080,
      "KBa": 1081,
      "ma": 1082,
      "Hf6": 1083,
      "platinum": 1084,
      "KLi": 1085,
      "andium": 1086,
      "FeIr": 1087,
      "Np2": 1088,
      "scandium": 1089,
      "gamma": 1090,
      "rhodium": 1091,
      "CoNi": 1092,
      "CuBi": 1093,
      "PdNi": 1094,
      "CaZr": 1095,
      "Dy2": 1096,
      "HfMo": 1097,
      "Rb2": 1098,
      "Pa2": 1099,
      "german": 1100,
      "TiTa": 1101,
      "TiTc": 1102,
      "HfTa": 1103,
      "FeRh": 1104,
      "PdHg": 1105,
      "ZnIn": 1106,
      "CrRe": 1107,
      "Lu2": 1108,
      "thirty": 1109,
      "Sm2": 1110,
      "FePt": 1111,
      "TcIr": 1112,
      "CrRu": 1113,
      "LiLa": 1114,
      "KTa": 1115,
      "VMn": 1116,
      "HfRe": 1117,
      "CrTc": 1118,
      "KNa": 1119,
      "AuHg": 1120,
      "Uran": 1121,
      "FeCd": 1122,
      "Uranium": 1123,
      "NbRu": 1124,
      "IrNi": 1125,
      "nitr": 1126,
      "anti": 1127,
      "Mg5": 1128,
      "BeSc": 1129,
      "antimon": 1130,
      "S3": 1131,
      "nitrogen": 1132,
      "VTc": 1133,
      "os": 1134,
      "FeCu": 1135,
      "PdTl": 1136,
      "AgCu": 1137,
      "MoRe": 1138,
      "Ho2": 1139,
      "KCa": 1140,
      "PbBi": 1141,
      "TcRh": 1142,
      "TiOs": 1143,
      "HgCd": 1144,
      "GaAl": 1145,
      "Tm2": 1146,
      "Mg6": 1147,
      "FeAg": 1148,
      "bro": 1149,
      "ver": 1150,
      "IrRh": 1151,
      "MgBe": 1152,
      "ZrNb": 1153,
      "gol": 1154,
      "ha": 1155,
      "CoPt": 1156,
      "silver": 1157,
      "gold": 1158,
      "NaBe": 1159,
      "ZnSn": 1160,
      "Silicide": 1161,
      "KBe": 1162,
      "FePd": 1163,
      "HfNb": 1164,
      "MnRh": 1165,
      "MgSc": 1166,
      "NaBa": 1167,
      "CaLa": 1168,
      "ReTc": 1169,
      "NiAu": 1170,
      "germanium": 1171,
      "HfTc": 1172,
      "CaTi": 1173,
      "OsFe": 1174,
      "Nd2": 1175,
      "O7": 1176,
      "HfV": 1177,
      "NiIn": 1178,
      "NiTl": 1179,
      "CaY": 1180,
      "SrLa": 1181,
      "NaSc": 1182,
      "RuCd": 1183,
      "NiCu": 1184,
      "NiZn": 1185,
      "PtAg": 1186,
      "U2": 1187,
      "TaV": 1188,
      "SrTi": 1189,
      "CuTl": 1190,
      "than": 1191,
      "FeCo": 1192,
      "WIr": 1193,
      "ac": 1194,
      "ReZn": 1195,
      "MoTc": 1196,
      "PtTl": 1197,
      "RhAg": 1198,
      "yliden": 1199,
      "acid": 1200,
      "PtCd": 1201,
      "NaLa": 1202,
      "TcMn": 1203,
      "SrZr": 1204,
      "ReIr": 1205,
      "Th2": 1206,
      "NiCd": 1207,
      "AuZn": 1208,
      "KLa": 1209,
      "HfW": 1210,
      "Pd6": 1211,
      "PtZn": 1212,
      "SrTa": 1213,
      "AuSn": 1214,
      "AuTl": 1215,
      "MgLa": 1216,
      "NbRh": 1217,
      "MoRh": 1218,
      "VOs": 1219,
      "cad": 1220,
      "cadmium": 1221,
      "ScOs": 1222,
      "LiCa": 1223,
      "CrRh": 1224,
      "F2": 1225,
      "FeHg": 1226,
      "PdAg": 1227,
      "BaTi": 1228,
      "telluride": 1229,
      "NbTc": 1230,
      "PtCu": 1231,
      "MnZn": 1232,
      "AuBi": 1233,
      "BeLa": 1234,
      "pent": 1235,
      "hydr": 1236,
      "InGa": 1237,
      "MgY": 1238,
      "NiSn": 1239,
      "PdAl": 1240,
      "MnHg": 1241,
      "pentagonal": 1242,
      "InSn": 1243,
      "NaZr": 1244,
      "PtAl": 1245,
      "BeY": 1246,
      "KZr": 1247,
      "TaW": 1248,
      "C4": 1249,
      "licon": 1250,
      "lium": 1251,
      "lanthan": 1252,
      "Eu2": 1253,
      "antimony": 1254,
      "KSc": 1255,
      "TaOs": 1256,
      "PtHg": 1257,
      "lanthanum": 1258,
      "Rb3": 1259,
      "PtPb": 1260,
      "RuIr": 1261,
      "MgTi": 1262,
      "CoCd": 1263,
      "HfCr": 1264,
      "PdIn": 1265,
      "BeRe": 1266,
      "YW": 1267,
      "RuCo": 1268,
      "tin": 1269,
      "AuGa": 1270,
      "BeRh": 1271,
      "selenide": 1272,
      "ia": 1273,
      "llium": 1274,
      "ryllium": 1275,
      "PdZn": 1276,
      "SrSc": 1277,
      "beryllium": 1278,
      "all": 1279,
      "BaLa": 1280,
      "monia": 1281,
      "CoIn": 1282,
      "RuAg": 1283,
      "osmium": 1284,
      "VW": 1285,
      "silicon": 1286,
      "HfIr": 1287,
      "NaTi": 1288,
      "ZrTi": 1289,
      "BaSc": 1290,
      "HfFe": 1291,
      "SrY": 1292,
      "IrAg": 1293,
      "HgSn": 1294,
      "chloride": 1295,
      "Cs2": 1296,
      "Pu2": 1297,
      "CoGa": 1298,
      "TaRh": 1299,
      "CdBi": 1300,
      "S2": 1301,
      "Pt6": 1302,
      "PtGa": 1303,
      "MnAu": 1304,
      "BeCr": 1305,
      "PtBi": 1306,
      "ReAl": 1307,
      "I3": 1308,
      "FeIn": 1309,
      "PdCu": 1310,
      "CdTl": 1311,
      "NaV": 1312,
      "HgTl": 1313,
      "sio": 1314,
      "Fe1": 1315,
      "Nb6": 1316,
      "ReAu": 1317,
      "pall": 1318,
      "NiGa": 1319,
      "PdGa": 1320,
      "BaZr": 1321,
      "ZnTl": 1322,
      "phosphane": 1323,
      "CdSn": 1324,
      "CdPb": 1325,
      "HgAl": 1326,
      "YMo": 1327,
      "fluoride": 1328,
      "CaMn": 1329,
      "palladium": 1330,
      "CoCu": 1331,
      "HfMn": 1332,
      "dimer": 1333,
      "FeSn": 1334,
      "PdSn": 1335,
      "Sc6": 1336,
      "IrTl": 1337,
      "OsRh": 1338,
      "Zr6": 1339,
      "NiAl": 1340,
      "NbCr": 1341,
      "ScTi": 1342,
      "Ba6": 1343,
      "ylidene": 1344,
      "yl": 1345,
      "Sc12": 1346,
      "LiBe": 1347,
      "TcNi": 1348,
      "LiSc": 1349,
      "AgTl": 1350,
      "MnGa": 1351,
      "RuCu": 1352,
      "mide": 1353,
      "PtSn": 1354,
      "MnSn": 1355,
      "NaY": 1356,
      "CoSn": 1357,
      "AgSn": 1358,
      "ZnBi": 1359,
      "ZrIr": 1360,
      "LiTi": 1361,
      "RuTl": 1362,
      "RuHg": 1363,
      "lead": 1364,
      "CaHf": 1365,
      "BaTa": 1366,
      "tetragonal": 1367,
      "ScCo": 1368,
      "AgPb": 1369,
      "CdAl": 1370,
      "AuAl": 1371,
      "Rh6": 1372,
      "RuIn": 1373,
      "LiY": 1374,
      "CdIn": 1375,
      "Mo6": 1376,
      "NaTa": 1377,
      "AgGa": 1378,
      "ZnPb": 1379,
      "IrHg": 1380,
      "bromide": 1381,
      "MnPd": 1382,
      "MoAl": 1383,
      "AlSi": 1384,
      "Nb12": 1385,
      "AgBi": 1386,
      "SrV": 1387,
      "CrGa": 1388,
      "CuGa": 1389,
      "ScNb": 1390,
      "Cs3": 1391,
      "rcu": 1392,
      "ZrNi": 1393,
      "LaMo": 1394,
      "LaTc": 1395,
      "ZnAl": 1396,
      "RuGa": 1397,
      "HgGa": 1398,
      "RhCu": 1399,
      "LiTc": 1400,
      "RhGa": 1401,
      "IrAl": 1402,
      "VZn": 1403,
      "Ti6": 1404,
      "CaTa": 1405,
      "MnIn": 1406,
      "KY": 1407,
      "fnium": 1408,
      "TiW": 1409,
      "Nb1": 1410,
      "AgAl": 1411,
      "CdGa": 1412,
      "OsGa": 1413,
      "hafnium": 1414,
      "LaMn": 1415,
      "AuCu": 1416,
      "AuPb": 1417,
      "RhIn": 1418,
      "sixteen": 1419,
      "rcury": 1420,
      "VCu": 1421,
      "MgW": 1422,
      "Fe6": 1423,
      "HfCo": 1424,
      "PdPb": 1425,
      "LiCr": 1426,
      "MoCu": 1427,
      "MgCr": 1428,
      "SrRe": 1429,
      "BaW": 1430,
      "TcPt": 1431,
      "YNb": 1432,
      "TiMn": 1433,
      "LaNb": 1434,
      "Ta6": 1435,
      "Pd12": 1436,
      "WAu": 1437,
      "HfOs": 1438,
      "LaCr": 1439,
      "LiMo": 1440,
      "SrNb": 1441,
      "SbP": 1442,
      "ScTc": 1443,
      "HgBi": 1444,
      "FeGa": 1445,
      "PdBi": 1446,
      "Li6": 1447,
      "LiMn": 1448,
      "RhTl": 1449,
      "BaMo": 1450,
      "RuSn": 1451,
      "mercury": 1452,
      "MgZr": 1453,
      "FeAl": 1454,
      "BeIr": 1455,
      "P6": 1456,
      "ReGa": 1457,
      "YMn": 1458,
      "TiPd": 1459,
      "BaV": 1460,
      "NaW": 1461,
      "BeW": 1462,
      "Zr12": 1463,
      "CaMo": 1464,
      "CaRe": 1465,
      "ScCr": 1466,
      "MgRe": 1467,
      "ZrCo": 1468,
      "VCd": 1469,
      "MgZn": 1470,
      "TiMo": 1471,
      "BeCo": 1472,
      "BeTc": 1473,
      "BeOs": 1474,
      "ZrTc": 1475,
      "TlAl": 1476,
      "HgPb": 1477,
      "BeMo": 1478,
      "TiRh": 1479,
      "HfRh": 1480,
      "LaRe": 1481,
      "TcAu": 1482,
      "boride": 1483,
      "InBi": 1484,
      "HfRu": 1485,
      "CaOs": 1486,
      "IrCd": 1487,
      "WGa": 1488,
      "Ni5": 1489,
      "SrTc": 1490,
      "MnBi": 1491,
      "TeSe": 1492,
      "WAl": 1493,
      "YRu": 1494,
      "oxide": 1495,
      "ontium": 1496,
      "strontium": 1497,
      "MgNb": 1498,
      "TiV": 1499,
      "OsAu": 1500,
      "BeTa": 1501,
      "InPb": 1502,
      "LiZr": 1503,
      "IrGa": 1504,
      "TcGa": 1505,
      "ScRu": 1506,
      "BaCr": 1507,
      "OsPd": 1508,
      "CrTl": 1509,
      "BeFe": 1510,
      "NiBi": 1511,
      "ScW": 1512,
      "MnTl": 1513,
      "Ir6": 1514,
      "ReAg": 1515,
      "MgTa": 1516,
      "ZrMn": 1517,
      "TiCu": 1518,
      "LaOs": 1519,
      "NaOs": 1520,
      "BeMn": 1521,
      "CaV": 1522,
      "KNb": 1523,
      "ZrRh": 1524,
      "BaRe": 1525,
      "KRe": 1526,
      "W6": 1527,
      "NiHg": 1528,
      "IrIn": 1529,
      "OsAl": 1530,
      "I4": 1531,
      "VAg": 1532,
      "YRe": 1533,
      "ZrMo": 1534,
      "LiTa": 1535,
      "SrOs": 1536,
      "TcAg": 1537,
      "BP": 1538,
      "magne": 1539,
      "selan": 1540,
      "Ni1": 1541,
      "NaCr": 1542,
      "RuAl": 1543,
      "magnesio": 1544,
      "YTc": 1545,
      "FeBi": 1546,
      "PdAu": 1547,
      "BeHf": 1548,
      "AsBr": 1549,
      "tech": 1550,
      "Cu6": 1551,
      "CaCr": 1552,
      "SrW": 1553,
      "SrMo": 1554,
      "netium": 1555,
      "technetium": 1556,
      "778": 1557,
      "KTi": 1558,
      "MgCo": 1559,
      "TaRe": 1560,
      "PbP": 1561,
      "SbTe": 1562,
      "KMn": 1563,
      "YFe": 1564,
      "HfNi": 1565,
      "Ta12": 1566,
      "IrBi": 1567,
      "7782": 1568,
      "ZrOs": 1569,
      "CuSi": 1570,
      "TaAg": 1571,
      "VPd": 1572,
      "thallium": 1573,
      "MgMo": 1574,
      "LaW": 1575,
      "CaNb": 1576,
      "BaMn": 1577,
      "NaMn": 1578,
      "ZnGe": 1579,
      "MnAl": 1580,
      "NaIr": 1581,
      "ZnGa": 1582,
      "BeV": 1583,
      "MgRu": 1584,
      "ZrW": 1585,
      "TiGa": 1586,
      "NbPt": 1587,
      "ScMo": 1588,
      "LiOs": 1589,
      "AuAg": 1590,
      "RhSn": 1591,
      "IrPb": 1592,
      "1333": 1593,
      "RuV": 1594,
      "TcHg": 1595,
      "OsTl": 1596,
      "selenium": 1597,
      "V6": 1598,
      "YOs": 1599,
      "cal": 1600,
      "cium": 1601,
      "LaFe": 1602,
      "PdB": 1603,
      "CaRu": 1604,
      "TcCu": 1605,
      "arsenic": 1606,
      "calcium": 1607,
      "YCo": 1608,
      "TiNb": 1609,
      "CaW": 1610,
      "ScV": 1611,
      "Mn6": 1612,
      "CrAl": 1613,
      "Am": 1614,
      "KW": 1615,
      "SeBr": 1616,
      "Ammonia": 1617,
      "ZrRe": 1618,
      "TiCr": 1619,
      "LiHf": 1620,
      "SrHf": 1621,
      "OsIn": 1622,
      "TaMo": 1623,
      "CaNi": 1624,
      "ZnB": 1625,
      "eleven": 1626,
      "ZrCr": 1627,
      "PdSi": 1628,
      "BaHf": 1629,
      "RuPb": 1630,
      "Tc6": 1631,
      "arium": 1632,
      "KV": 1633,
      "TcAl": 1634,
      "BeHg": 1635,
      "WZn": 1636,
      "YCu": 1637,
      "TiIn": 1638,
      "Ni6": 1639,
      "NiPb": 1640,
      "CaFe": 1641,
      "NaFe": 1642,
      "OsAg": 1643,
      "ReCd": 1644,
      "luor": 1645,
      "MgRh": 1646,
      "TiAl": 1647,
      "CaPd": 1648,
      "LiRh": 1649,
      "ZnSb": 1650,
      "RuAu": 1651,
      "BeGa": 1652,
      "GeP": 1653,
      "VHg": 1654,
      "gal": 1655,
      "CoHg": 1656,
      "Ti5": 1657,
      "TiCd": 1658,
      "SrCo": 1659,
      "BaY": 1660,
      "RuPd": 1661,
      "ReIn": 1662,
      "KHf": 1663,
      "LaRu": 1664,
      "BaNb": 1665,
      "NH": 1666,
      "TaPt": 1667,
      "SrFe": 1668,
      "TcTl": 1669,
      "ZrPt": 1670,
      "ScGa": 1671,
      "LiIr": 1672,
      "NaNb": 1673,
      "IrAu": 1674,
      "TcCd": 1675,
      "KMo": 1676,
      "Y6": 1677,
      "ZrAl": 1678,
      "SrCr": 1679,
      "ZnCo": 1680,
      "RuB": 1681,
      "IrSn": 1682,
      "OsCd": 1683,
      "OsHg": 1684,
      "BeAg": 1685,
      "WSn": 1686,
      "RhPb": 1687,
      "GeTe": 1688,
      "PTe": 1689,
      "VSn": 1690,
      "Fe5": 1691,
      "ScNi": 1692,
      "ScRe": 1693,
      "MoSn": 1694,
      "MoHg": 1695,
      "NaRh": 1696,
      "RuBi": 1697,
      "IrB": 1698,
      "BePt": 1699,
      "MgTc": 1700,
      "CoOs": 1701,
      "TiSn": 1702,
      "ars": 1703,
      "SiBi": 1704,
      "GeSb": 1705,
      "hydrochlor": 1706,
      "KOs": 1707,
      "S4": 1708,
      "VPb": 1709,
      "MgPt": 1710,
      "PtB": 1711,
      "MnCd": 1712,
      "MoIn": 1713,
      "dialuminium": 1714,
      "Re6": 1715,
      "CoMn": 1716,
      "NbZn": 1717,
      "CaCo": 1718,
      "Ag6": 1719,
      "arsen": 1720,
      "WIn": 1721,
      "LaRh": 1722,
      "AgSi": 1723,
      "eighteen": 1724,
      "selanylidene": 1725,
      "fourteen": 1726,
      "ScRh": 1727,
      "PtSi": 1728,
      "SrRu": 1729,
      "RhHg": 1730,
      "NaHf": 1731,
      "NaTc": 1732,
      "Os6": 1733,
      "BeRu": 1734,
      "GeSe": 1735,
      "arsenide": 1736,
      "KTc": 1737,
      "CoRe": 1738,
      "HfZn": 1739,
      "CaIr": 1740,
      "Au12": 1741,
      "RhBi": 1742,
      "IrPt": 1743,
      "ReNi": 1744,
      "hydrochloric": 1745,
      "VCr": 1746,
      "RhCo": 1747,
      "GeBr": 1748,
      "As6": 1749,
      "da": 1750,
      "lam": 1751,
      "rb": 1752,
      "disi": 1753,
      "FeZn": 1754,
      "NbHg": 1755,
      "SnSb": 1756,
      "BaTc": 1757,
      "OsIr": 1758,
      "mmm": 1759,
      "BSn": 1760,
      "barium": 1761,
      "bda": 1762,
      "MgMn": 1763,
      "FeNi": 1764,
      "NiTi": 1765,
      "TaNi": 1766,
      "lambda": 1767,
      "disilane": 1768,
      "F6": 1769,
      "WCr": 1770,
      "Co5": 1771,
      "NbSn": 1772,
      "CdSi": 1773,
      "ReTl": 1774,
      "Cl6": 1775,
      "CuIr": 1776,
      "TiTl": 1777,
      "NbAu": 1778,
      "LaPd": 1779,
      "CaTc": 1780,
      "BeIn": 1781,
      "Pm2": 1782,
      "VMo": 1783,
      "VSi": 1784,
      "MgIr": 1785,
      "FeTl": 1786,
      "LaAg": 1787,
      "LiAu": 1788,
      "SrSr": 1789,
      "AuSi": 1790,
      "Cr6": 1791,
      "SbSe": 1792,
      "K6": 1793,
      "trifluoride": 1794,
      "MgSi": 1795,
      "FeW": 1796,
      "LaCo": 1797,
      "Ta8": 1798,
      "ScCu": 1799,
      "MoTl": 1800,
      "CrBi": 1801,
      "Be6": 1802,
      "GeBi": 1803,
      "ii": 1804,
      "Al5": 1805,
      "CoTi": 1806,
      "HfPd": 1807,
      "RhB": 1808,
      "IrPd": 1809,
      "BePd": 1810,
      "CoAg": 1811,
      "HfCd": 1812,
      "Li5": 1813,
      "MnRe": 1814,
      "RhRe": 1815,
      "TcPb": 1816,
      "TcBi": 1817,
      "CrHg": 1818,
      "Se6": 1819,
      "Ti12": 1820,
      "TaAl": 1821,
      "ScCd": 1822,
      "SrPt": 1823,
      "TcIn": 1824,
      "O8": 1825,
      "MgOs": 1826,
      "ZrCd": 1827,
      "FeTi": 1828,
      "FeSi": 1829,
      "BaOs": 1830,
      "RePb": 1831,
      "NbAl": 1832,
      "LiRe": 1833,
      "AgSb": 1834,
      "CdB": 1835,
      "RhGe": 1836,
      "CrAu": 1837,
      "gallane": 1838,
      "YRh": 1839,
      "AlGe": 1840,
      "MgHf": 1841,
      "CoTl": 1842,
      "FeTa": 1843,
      "MoIr": 1844,
      "GeSi": 1845,
      "OF": 1846,
      "TiHg": 1847,
      "FePb": 1848,
      "FeCr": 1849,
      "NiMn": 1850,
      "Mn12": 1851,
      "BiSb": 1852,
      "TcB": 1853,
      "ReSn": 1854,
      "hydrate": 1855,
      "W12": 1856,
      "FeRu": 1857,
      "SnTe": 1858,
      "Carb": 1859,
      "TlB": 1860,
      "CrIn": 1861,
      "chloro": 1862,
      "Carbide": 1863,
      "KCr": 1864,
      "meth": 1865,
      "InSi": 1866,
      "TiAg": 1867,
      "Au6": 1868,
      "TlGe": 1869,
      "IrSi": 1870,
      "HgSb": 1871,
      "ReSi": 1872,
      "TeBr": 1873,
      "BC": 1874,
      "VGa": 1875,
      "NiAg": 1876,
      "CaCu": 1877,
      "LiCd": 1878,
      "MnAg": 1879,
      "MoRu": 1880,
      "NaCu": 1881,
      "ZnP": 1882,
      "CrSn": 1883,
      "VAu": 1884,
      "ZrSn": 1885,
      "CaRh": 1886,
      "MnOs": 1887,
      "MoAu": 1888,
      "TcZn": 1889,
      "CrCd": 1890,
      "SbAs": 1891,
      "BAs": 1892,
      "MgGa": 1893,
      "NiGe": 1894,
      "LaIr": 1895,
      "TaZn": 1896,
      "RhCd": 1897,
      "BaCo": 1898,
      "ZrRu": 1899,
      "HfGa": 1900,
      "La6": 1901,
      "PdCr": 1902,
      "LiW": 1903,
      "BiP": 1904,
      "SiTe": 1905,
      "SbCl": 1906,
      "GeAs": 1907,
      "BrCl": 1908,
      "WHg": 1909,
      "CoZn": 1910,
      "TiAu": 1911,
      "HfB": 1912,
      "SnGe": 1913,
      "LiPt": 1914,
      "LiFe1": 1915,
      "PtGe": 1916,
      "Pt12": 1917,
      "TcSi": 1918,
      "VAl": 1919,
      "thor": 1920,
      "InAs": 1921,
      "MgCd": 1922,
      "Mg12": 1923,
      "TaCd": 1924,
      "PdSb": 1925,
      "MoCr": 1926,
      "phosphor": 1927,
      "Co6": 1928,
      "CoPb": 1929,
      "ZrFe": 1930,
      "NiB": 1931,
      "NbMn": 1932,
      "Ag12": 1933,
      "PbSi": 1934,
      "SrMn": 1935,
      "TlSi": 1936,
      "IrZn": 1937,
      "TcSn": 1938,
      "BeSn": 1939,
      "WTl": 1940,
      "mb": 1941,
      "CoBi": 1942,
      "RhPt": 1943,
      "IrGe": 1944,
      "OsBi": 1945,
      "BeTl": 1946,
      "BeZn": 1947,
      "HfAl": 1948,
      "LaCd": 1949,
      "PdGe": 1950,
      "ScMn": 1951,
      "RuZn": 1952,
      "RuSi": 1953,
      "VRu": 1954,
      "ZrGa": 1955,
      "CuCr": 1956,
      "CuAs": 1957,
      "CdSb": 1958,
      "CdAs": 1959,
      "RuRh": 1960,
      "BePb": 1961,
      "PSe": 1962,
      "YIr": 1963,
      "CoGe": 1964,
      "LaNi": 1965,
      "TaMn": 1966,
      "PtP": 1967,
      "SrRh": 1968,
      "MnPt": 1969,
      "OsSn": 1970,
      "PCl": 1971,
      "WNi": 1972,
      "WMn": 1973,
      "CoAl": 1974,
      "CoRh": 1975,
      "ZrPd": 1976,
      "FeV": 1977,
      "FeMo": 1978,
      "CaCa": 1979,
      "PbCl": 1980,
      "MnFe": 1981,
      "1445": 1982,
      "14452": 1983,
      "BSb": 1984,
      "BTe": 1985,
      "ho": 1986,
      "MgCu": 1987,
      "TiBi": 1988,
      "PdTe": 1989,
      "BaRu": 1990,
      "IrV": 1991,
      "IrCr": 1992,
      "OsCu": 1993,
      "CrPd": 1994,
      "homb": 1995,
      "BBi": 1996,
      "YPt": 1997,
      "orthor": 1998,
      "MgFe": 1999,
      "FeAu": 2000,
      "TaGe": 2001,
      "AuSb": 2002,
      "NaRe": 2003,
      "digallane": 2004,
      "ReBi": 2005,
      "faceface": 2006,
      "hombic": 2007,
      "orthorhombic": 2008,
      "KAg": 2009,
      "YAg": 2010,
      "LaAl": 2011,
      "ScIn": 2012,
      "ScSn": 2013,
      "SrNi": 2014,
      "ZnTe": 2015,
      "OsPt": 2016,
      "CrGe": 2017,
      "WRu": 2018,
      "Y8": 2019,
      "CuP": 2020,
      "FeGe": 2021,
      "NiFe": 2022,
      "NbFe": 2023,
      "MnNi": 2024,
      "BaIr": 2025,
      "RuFe": 2026,
      "GaGe": 2027,
      "BGe": 2028,
      "WPd": 2029,
      "InP": 2030,
      "HfTl": 2031,
      "NbBi": 2032,
      "LaPt": 2033,
      "TaCr": 2034,
      "PbBr": 2035,
      "SrAu": 2036,
      "SrIr": 2037,
      "MoNi": 2038,
      "Ru6": 2039,
      "TcTa": 2040,
      "OsMn": 2041,
      "SeCl": 2042,
      "AsP": 2043,
      "AsCl": 2044,
      "llurium": 2045,
      "KRh": 2046,
      "VPt": 2047,
      "WCu": 2048,
      "YNi": 2049,
      "YZn": 2050,
      "In6": 2051,
      "ZrAu": 2052,
      "HfSn": 2053,
      "NbTl": 2054,
      "TaHg": 2055,
      "RhTe": 2056,
      "NaCo": 2057,
      "ZnSi": 2058,
      "ReMn": 2059,
      "YCd": 2060,
      "YSi": 2061,
      "InB": 2062,
      "ZrTl": 2063,
      "CuBe": 2064,
      "LiBa2": 2065,
      "RhAl": 2066,
      "HgSi": 2067,
      "RePt": 2068,
      "CrPb": 2069,
      "TeCl": 2070,
      "alumanylidyne": 2071,
      "V5": 2072,
      "WAg": 2073,
      "CoPd": 2074,
      "CuGe": 2075,
      "HfHg": 2076,
      "NbAg": 2077,
      "ScIr": 2078,
      "MnMo": 2079,
      "NaAu": 2080,
      "NaMo": 2081,
      "RuTi": 2082,
      "IrMn": 2083,
      "SbBr": 2084,
      "VIn": 2085,
      "CoAu": 2086,
      "CuOs": 2087,
      "LaCu": 2088,
      "TaTl": 2089,
      "MoCo": 2090,
      "Mo12": 2091,
      "RuPt": 2092,
      "TcFe": 2093,
      "OsGe": 2094,
      "Re12": 2095,
      "BeGe": 2096,
      "phosphorus": 2097,
      "BSi": 2098,
      "BSe": 2099,
      "inium": 2100,
      "InGe": 2101,
      "TaIr": 2102,
      "MoCd": 2103,
      "OsRu": 2104,
      "ReV": 2105,
      "Si5": 2106,
      "SiBr": 2107,
      "Be5": 2108,
      "BBr": 2109,
      "MgNi": 2110,
      "CaAu": 2111,
      "PbAs": 2112,
      "CdCl": 2113,
      "SrAg": 2114,
      "BiSe": 2115,
      "MoMn": 2116,
      "TlP": 2117,
      "HgGe": 2118,
      "BeAl": 2119,
      "AsTe": 2120,
      "molecular": 2121,
      "ScCo1": 2122,
      "PBr": 2123,
      "WPt": 2124,
      "AlP": 2125,
      "NiNb": 2126,
      "NiBe": 2127,
      "Pd5": 2128,
      "LiNb": 2129,
      "PtV": 2130,
      "AgTe": 2131,
      "TlSb": 2132,
      "Zn6": 2133,
      "Sb6": 2134,
      "T5": 2135,
      "CuNb": 2136,
      "TiIr": 2137,
      "TiAs": 2138,
      "PdCo": 2139,
      "LiSr2": 2140,
      "AuGe": 2141,
      "BaPd": 2142,
      "BaBa": 2143,
      "RuGe": 2144,
      "Tc5": 2145,
      "OsCo": 2146,
      "CrPt": 2147,
      "Ga6": 2148,
      "GaBr": 2149,
      "BeNb": 2150,
      "hydrof": 2151,
      "BCT5": 2152,
      "B6": 2153,
      "C5": 2154,
      "H4": 2155,
      "WPb": 2156,
      "AlTe": 2157,
      "MgP": 2158,
      "CoV": 2159,
      "SrCu": 2160,
      "MnRu": 2161,
      "2h": 2162,
      "VCo": 2163,
      "VIr": 2164,
      "WFe": 2165,
      "AlSb": 2166,
      "ZrHg": 2167,
      "CuMn": 2168,
      "LaZn": 2169,
      "SnSe": 2170,
      "Ca6": 2171,
      "CaPt": 2172,
      "PbSe": 2173,
      "SrLa2": 2174,
      "AuTe": 2175,
      "RhRu": 2176,
      "RhSi": 2177,
      "OsPb": 2178,
      "GaSb": 2179,
      "SiSb": 2180,
      "LiMn1": 2181,
      ")(": 2182,
      "N4": 2183,
      "N5": 2184,
      "VFe": 2185,
      "NbIr": 2186,
      "ScHg": 2187,
      "LiZn": 2188,
      "MnIr": 2189,
      "MoGa": 2190,
      "SiAs": 2191,
      "YHg": 2192,
      "ge2h": 2193,
      "FeTc": 2194,
      "NiSi": 2195,
      "SnP": 2196,
      "CaHg": 2197,
      "PbGe": 2198,
      "RuTe": 2199,
      "RePd": 2200,
      "CrAg": 2201,
      "ge2h6": 2202,
      "WRh": 2203,
      "silicide": 2204,
      "AlBr": 2205,
      "CuTe": 2206,
      "HfBi": 2207,
      "HfGe": 2208,
      "NiAs": 2209,
      "TaCo": 2210,
      "PtSb": 2211,
      "BaIn": 2212,
      "BaFe": 2213,
      "BaCd": 2214,
      "BaLa2": 2215,
      "NaPd": 2216,
      "ZnRu": 2217,
      "RuRe": 2218,
      "CrFe": 2219,
      "CrIr": 2220,
      "GaP": 2221,
      "F4": 2222,
      "llan": 2223,
      "tellan": 2224,
      "MgIn": 2225,
      "ZrIn": 2226,
      "Cu12": 2227,
      "ScSe": 2228,
      "PbTe": 2229,
      "SrPd": 2230,
      "Mn5": 2231,
      "TlCl": 2232,
      "RuTa": 2233,
      "ReSb": 2234,
      "KCo": 2235,
      "Y12": 2236,
      "ctinium": 2237,
      "CuTa": 2238,
      "LaTl": 2239,
      "rota": 2240,
      "LiCo": 2241,
      "PtMn": 2242,
      "CdBr": 2243,
      "MnCo": 2244,
      "MnSi": 2245,
      "MnGe": 2246,
      "BaRh": 2247,
      "BiAs": 2248,
      "MoPt": 2249,
      "ZnMo": 2250,
      "diphosphorus": 2251,
      "ReCo": 2252,
      "rotactinium": 2253,
      "BCl": 2254,
      "YAu": 2255,
      "AlB": 2256,
      "MgV": 2257,
      "CoTa": 2258,
      "FeP": 2259,
      "FeSc": 2260,
      "LaHg": 2261,
      "LiV": 2262,
      "TlBr": 2263,
      "ZnSe": 2264,
      "ZnBr": 2265,
      "RuW": 2266,
      "diarse": 2267,
      "IrTi": 2268,
      "IrTe": 2269,
      "diarsene": 2270,
      "KK": 2271,
      "O9": 2272,
      "Protactinium": 2273,
      "TiRu": 2274,
      "FeSb": 2275,
      "FeBr": 2276,
      "HfIn": 2277,
      "NiW": 2278,
      "NbGe": 2279,
      "TaRu": 2280,
      "SnSi": 2281,
      "PtRu": 2282,
      "RhV": 2283,
      "BiCl": 2284,
      "MoZn": 2285,
      "BeZr": 2286,
      "BPb": 2287,
      "tl": 2288,
      "InSb": 2289,
      "CuSb": 2290,
      "NbPd": 2291,
      "SnBr": 2292,
      "RhCl": 2293,
      "MoPd": 2294,
      "NaNa": 2295,
      "TcTe": 2296,
      "CrCo": 2297,
      "Bi2Te": 2298,
      "LaAu": 2299,
      "PtTe": 2300,
      "AgGe": 2301,
      "MoAg": 2302,
      "CoBr": 2303,
      "NiRh": 2304,
      "NiSe": 2305,
      "BiTe": 2306,
      "MoTa": 2307,
      "MoSb": 2308,
      "CrV": 2309,
      "SiP": 2310,
      "KSr2": 2311,
      "VRe": 2312,
      "disodium": 2313,
      "FeCl": 2314,
      "PtOs": 2315,
      "Cd12": 2316,
      "Rh12": 2317,
      "OsHf": 2318,
      "ReCu": 2319,
      "bipyramidal": 2320,
      "fer": 2321,
      "NiOs": 2322,
      "TaSn": 2323,
      "PdTa": 2324,
      "AgSe": 2325,
      "AgCl": 2326,
      "CdBe": 2327,
      "Rh5": 2328,
      "RhP": 2329,
      "RhNi": 2330,
      "7439": 2331,
      "magnesiomagnesium": 2332,
      "N6": 2333,
      "InBr": 2334,
      "HfP": 2335,
      "PdAs": 2336,
      "ScGe": 2337,
      "MoFe": 2338,
      "TlTe": 2339,
      "RuLi": 2340,
      "OsSi": 2341,
      "ReRu": 2342,
      "GaB": 2343,
      "AsSe": 2344,
      "KRu": 2345,
      "NH2": 2346,
      "PO4": 2347,
      "WCd": 2348,
      "YGe": 2349,
      "na": 2350,
      "Al12": 2351,
      "CoTe": 2352,
      "CuSe": 2353,
      "HfPt": 2354,
      "LaBi": 2355,
      "SnAs": 2356,
      "PdRe": 2357,
      "CaSn": 2358,
      "CaGa": 2359,
      "ScAu": 2360,
      "ScZn": 2361,
      "CdSe": 2362,
      "SrB": 2363,
      "AuFe": 2364,
      "SiCl": 2365,
      "BeTi": 2366,
      "Sb2Cl": 2367,
      "hydrochloride": 2368,
      "KFe": 2369,
      "Pha": 2370,
      "Rhenium": 2371,
      "VNi": 2372,
      "Al6": 2373,
      "trioxide": 2374,
      "NbNi": 2375,
      "NbGa": 2376,
      "PtCr": 2377,
      "MnSc": 2378,
      "TcGe": 2379,
      "HgB": 2380,
      "Phase": 2381,
      "VRh": 2382,
      "brom": 2383,
      "CoCl": 2384,
      "CuB": 2385,
      "FeRe": 2386,
      "TaFe": 2387,
      "PdCl": 2388,
      "AuPd": 2389,
      "BaNi": 2390,
      "MoV": 2391,
      "IrSc": 2392,
      "IrMo": 2393,
      "IrSb": 2394,
      "ReHg": 2395,
      "BOs": 2396,
      "KIr": 2397,
      "Zin": 2398,
      "ul": 2399,
      "tellurium": 2400,
      "MgAl": 2401,
      "CuHf": 2402,
      "Ni12": 2403,
      "SnCl": 2404,
      "ScFe": 2405,
      "ScSi": 2406,
      "AgBr": 2407,
      "MnPb": 2408,
      "RhW": 2409,
      "BaCa2": 2410,
      "tieth": 2411,
      "In2Sb": 2412,
      "borane": 2413,
      "hydrofluor": 2414,
      "Zintl": 2415,
      "2O2": 2416,
      "2H2": 2417,
      "S6": 2418,
      "WSi": 2419,
      "WSb": 2420,
      "InIn": 2421,
      "TiSb": 2422,
      "NiSb": 2423,
      "NbCd": 2424,
      "NbBe": 2425,
      "TaTc": 2426,
      "ScPt": 2427,
      "BaAu": 2428,
      "BaSr2": 2429,
      "TlTl": 2430,
      "HgTe": 2431,
      "ReGe": 2432,
      "CrNi": 2433,
      "GaAs": 2434,
      "Pb2Ge": 2435,
      "Si2P": 2436,
      "ammonia": 2437,
      "germane": 2438,
      "hydrofluoric": 2439,
      "AlAs": 2440,
      "ZrGe": 2441,
      "TiFe": 2442,
      "TaSi": 2443,
      "ScAg": 2444,
      "LiCu": 2445,
      "LiHg": 2446,
      "CdTe": 2447,
      "AuCo": 2448,
      "AuBe": 2449,
      "RhSb": 2450,
      "BaHf2": 2451,
      "BiBi": 2452,
      "TlFe": 2453,
      "IrCu": 2454,
      "Os5": 2455,
      "OsSb": 2456,
      "Ga5": 2457,
      "cu2": 2458,
      "phosphanylidyne": 2459,
      "Amm": 2460,
      "P12": 2461,
      "VBi": 2462,
      "WGe": 2463,
      "MgPd": 2464,
      "CoB": 2465,
      "ZrBe": 2466,
      "TiCo": 2467,
      "HfZr2": 2468,
      "ScTl": 2469,
      "PtRe": 2470,
      "PbCo": 2471,
      "CdMn": 2472,
      "SrCl": 2473,
      "BaZn": 2474,
      "MoGe": 2475,
      "NaMg2": 2476,
      "ZnCl": 2477,
      "Ru12": 2478,
      "GaZn": 2479,
      "thirtieth": 2480,
      "arsanylidyne": 2481,
      "Amm2": 2482,
      "VMg": 2483,
      "YSc2": 2484,
      "nen": 2485,
      "AlRh": 2486,
      "AlSe": 2487,
      "Co12": 2488,
      "ZrCu": 2489,
      "PdW": 2490,
      "BaCu": 2491,
      "diantimony": 2492,
      "OsNi": 2493,
      "CrCu": 2494,
      "CrSi": 2495,
      "GaMo": 2496,
      "BeAu": 2497,
      "YTl": 2498,
      "TiNi": 2499,
      "HfSi": 2500,
      "NbCl": 2501,
      "LaSc2": 2502,
      "TaPb": 2503,
      "ScHf2": 2504,
      "LiTl": 2505,
      "BaBe2": 2506,
      "BiBr": 2507,
      "OsTe": 2508,
      "GaSi": 2509,
      "Pb2Sb": 2510,
      "Bi2Sb": 2511,
      "ulf": 2512,
      "KLi2": 2513,
      "YBi": 2514,
      "MgBr": 2515,
      "HfAg": 2516,
      "NiCl": 2517,
      "LaIn": 2518,
      "LiFe": 2519,
      "PbSb": 2520,
      "MnAs": 2521,
      "OsZn": 2522,
      "BeLa2": 2523,
      "Bi2Se": 2524,
      "Te2Se": 2525,
      "Sb2Br": 2526,
      "phosphine": 2527,
      "023": 2528,
      "2Cl2": 2529,
      "CN": 2530,
      "_flu": 2531,
      "ka": 2532,
      "lene": 2533,
      "MgHg": 2534,
      "NbB": 2535,
      "LaY2": 2536,
      "TaSb": 2537,
      "CaTi2": 2538,
      "MnSb": 2539,
      "NaCd": 2540,
      "RuMo": 2541,
      "Os12": 2542,
      "29_flu": 2543,
      "Sn2As": 2544,
      "Bi2Br": 2545,
      "Sb2P": 2546,
      "Sb2Se": 2547,
      "Pt2Te": 2548,
      "B2P": 2549,
      "02329_flu": 2550,
      "02329_fluka": 2551,
      "KNi": 2552,
      "KAu": 2553,
      "KBa2": 2554,
      "KNa2": 2555,
      "sti": 2556,
      "MgZr2": 2557,
      "CuBr": 2558,
      "CuCl": 2559,
      "TiPt": 2560,
      "HfAs": 2561,
      "LiLi": 2562,
      "Pb12": 2563,
      "SrMg2": 2564,
      "AuIr": 2565,
      "TlCo": 2566,
      "TlCd": 2567,
      "ZnOs": 2568,
      "ZnCr": 2569,
      "RuZr": 2570,
      "Ir12": 2571,
      "ReRh": 2572,
      "CrBr": 2573,
      "GaTe": 2574,
      "Si6": 2575,
      "BeAs": 2576,
      "Sn2P": 2577,
      "Cd2Te": 2578,
      "KMg2": 2579,
      "WCo": 2580,
      "YFe2": 2581,
      "InCl": 2582,
      "MgHf2": 2583,
      "CuZr": 2584,
      "TaAs": 2585,
      "CdGe": 2586,
      "Sr6": 2587,
      "MnMn12": 2588,
      "AuSe": 2589,
      "Mo5": 2590,
      "NaTl": 2591,
      "RuSe": 2592,
      "Tc12": 2593,
      "OsZr": 2594,
      "ReTa": 2595,
      "ReAs": 2596,
      "In2Al": 2597,
      "Bi2As": 2598,
      "stib": 2599,
      "VTl": 2600,
      "WBi": 2601,
      "YPd": 2602,
      "sulf": 2603,
      "InSe": 2604,
      "FeSe": 2605,
      "HfFe2": 2606,
      "HfMo2": 2607,
      "NbPb": 2608,
      "LaTi2": 2609,
      "SnCr": 2610,
      "ScTe": 2611,
      "PbTi": 2612,
      "RhBr": 2613,
      "BaW2": 2614,
      "MoBi": 2615,
      "RuAs": 2616,
      "BeSb": 2617,
      "BeY2": 2618,
      "Nd3": 2619,
      "Sb2As": 2620,
      "P4mm": 2621,
      "elen": 2622,
      "onium": 2623,
      "InTe": 2624,
      "MgLa2": 2625,
      "CoSb": 2626,
      "ZrAg": 2627,
      "HfSb": 2628,
      "NiBr": 2629,
      "NbTe": 2630,
      "La12": 2631,
      "LaFe2": 2632,
      "CaTl": 2633,
      "CaAs": 2634,
      "ScAs": 2635,
      "PtMo": 2636,
      "PtIr": 2637,
      "PtSe": 2638,
      "SrCa2": 2639,
      "MnCu": 2640,
      "AuAs": 2641,
      "BaMg2": 2642,
      "NaZn": 2643,
      "ZnAs": 2644,
      "Cr12": 2645,
      "SiGa": 2646,
      "GeCl": 2647,
      "Si2Bi": 2648,
      "Cu2Pb": 2649,
      "P2Te": 2650,
      "Ga2Br": 2651,
      "Fluor": 2652,
      "H5": 2653,
      "kal": 2654,
      "ZrSe": 2655,
      "NiP": 2656,
      "NiTe": 2657,
      "NbCu": 2658,
      "NbLi": 2659,
      "CaP": 2660,
      "CaAl": 2661,
      "ScPd": 2662,
      "AgMn": 2663,
      "CdCr": 2664,
      "SrNb2": 2665,
      "SrBe2": 2666,
      "MnNb": 2667,
      "AuV": 2668,
      "Rh9": 2669,
      "IrAs": 2670,
      "Sn2Se": 2671,
      "Cd2In": 2672,
      "Ga2Bi": 2673,
      "silyl": 2674,
      "Fluorite": 2675,
      "kalium": 2676,
      "KHg": 2677,
      "VB": 2678,
      "ror": 2679,
      "tride": 2680,
      "MgSc2": 2681,
      "ZrZn": 2682,
      "ZrBr": 2683,
      "LaGa": 2684,
      "TaPd": 2685,
      "CaNb2": 2686,
      "LiZr2": 2687,
      "SrHg": 2688,
      "SrAs": 2689,
      "MnBr": 2690,
      "BaZr2": 2691,
      "MoPb": 2692,
      "NaBa2": 2693,
      "CrZn": 2694,
      "error": 2695,
      "7230": 2696,
      "In2Ga": 2697,
      "Sn2Cl": 2698,
      "Si2Te": 2699,
      "name": 2700,
      "KY2": 2701,
      "S5": 2702,
      "VLi": 2703,
      "AlCl": 2704,
      "diselen": 2705,
      "CoP": 2706,
      "CoSi": 2707,
      "ZrW2": 2708,
      "HfCu": 2709,
      "LaMn2": 2710,
      "CaIn": 2711,
      "CaZr2": 2712,
      "ScSb": 2713,
      "LiCa2": 2714,
      "TlSe": 2715,
      "ZnIr": 2716,
      "RuK": 2717,
      "dithallium": 2718,
      "IrNb": 2719,
      "Hg6": 2720,
      "ReFe": 2721,
      "SiSe": 2722,
      "BeP": 2723,
      "Ac2": 2724,
      "Pb2Si": 2725,
      "Tl2Sb": 2726,
      "Tl2Te": 2727,
      "Al2Ge": 2728,
      "Te2Cl": 2729,
      "Pd2Bi": 2730,
      "Br2Cl": 2731,
      "43m": 2732,
      "YZr2": 2733,
      "YTa2": 2734,
      "stan": 2735,
      "FeAs": 2736,
      "LaSi": 2737,
      "LaTa2": 2738,
      "TaGa": 2739,
      "PtW": 2740,
      "AgCo": 2741,
      "SrAl": 2742,
      "SrGe": 2743,
      "AuB": 2744,
      "NaSc2": 2745,
      "TlAs": 2746,
      "RuMn": 2747,
      "TcSb": 2748,
      "OsAs": 2749,
      "ReB": 2750,
      "Te12": 2751,
      "bromo": 2752,
      "PO3": 2753,
      "YIn": 2754,
      "YTi2": 2755,
      "YV2": 2756,
      "YMn2": 2757,
      "MgCa": 2758,
      "Cu5": 2759,
      "TiBr": 2760,
      "Nb8": 2761,
      "TaW2": 2762,
      "PdIr": 2763,
      "CaZn": 2764,
      "ScBi": 2765,
      "ScZr2": 2766,
      "LiAg": 2767,
      "SrSi": 2768,
      "SrY2": 2769,
      "NaRu": 2770,
      "NaCa2": 2771,
      "ZnTi": 2772,
      "Zn12": 2773,
      "IrTa": 2774,
      "HgSe": 2775,
      "HgAs": 2776,
      "BeSi": 2777,
      "In2Sn": 2778,
      "Pb2Bi": 2779,
      "stann": 2780,
      "YPd2": 2781,
      "fc": 2782,
      "pero": 2783,
      "MgGe": 2784,
      "ZrBi": 2785,
      "TiB": 2786,
      "NbC": 2787,
      "LiTi2": 2788,
      "PtTi": 2789,
      "PtCl": 2790,
      "AuBr": 2791,
      "BaNb2": 2792,
      "Na8": 2793,
      "NaSr2": 2794,
      "ZnFe": 2795,
      "diindium": 2796,
      "Cr5": 2797,
      "Sm3": 2798,
      "KTa1": 2799,
      "KPb": 2800,
      "OH": 2801,
      "YAl": 2802,
      "acety": 2803,
      "CoAs": 2804,
      "CuW": 2805,
      "FeB": 2806,
      "LaSe": 2807,
      "LaZr2": 2808,
      "LaOs2": 2809,
      "Sn6": 2810,
      "CaMg2": 2811,
      "LiMn2": 2812,
      "SrZr2": 2813,
      "MnB": 2814,
      "BaAg": 2815,
      "BaY2": 2816,
      "NaLi2": 2817,
      "CrSb": 2818,
      "BeBi": 2819,
      "In2Bi": 2820,
      "Pb2Cl": 2821,
      "Al2P": 2822,
      "boranylidyne": 2823,
      "U3": 2824,
      "YHf2": 2825,
      "MgSb": 2826,
      "TiPb": 2827,
      "HfC": 2828,
      "HfAu": 2829,
      "HfBr": 2830,
      "LaTe": 2831,
      "LaRu2": 2832,
      "PdRu": 2833,
      "PdBr": 2834,
      "PdPd12": 2835,
      "ScB": 2836,
      "AgB": 2837,
      "MnTe": 2838,
      "RhSe": 2839,
      "RhAs": 2840,
      "NaHg": 2841,
      "ReSc": 2842,
      "BeTe": 2843,
      "BeSc2": 2844,
      "Ge6": 2845,
      "Sn2Br": 2846,
      "Si2Sb": 2847,
      "Au2Bi": 2848,
      "Se2Cl": 2849,
      "diselenium": 2850,
      "acetylene": 2851,
      "KTi2": 2852,
      "V12": 2853,
      "YNb2": 2854,
      "YMo2": 2855,
      "tonium": 2856,
      "MgB": 2857,
      "TiMo2": 2858,
      "NbIn": 2859,
      "LaIr2": 2860,
      "TaP": 2861,
      "TaAu": 2862,
      "Pd1": 2863,
      "PdP": 2864,
      "CaW2": 2865,
      "ScTi2": 2866,
      "LiSc2": 2867,
      "PtAs": 2868,
      "SrZn": 2869,
      "SrSb": 2870,
      "MnSe": 2871,
      "MnCl": 2872,
      "BaTa2": 2873,
      "NaIn": 2874,
      "TcBr": 2875,
      "CrP": 2876,
      "CrW": 2877,
      "Tl2Ga": 2878,
      "Al2Sn": 2879,
      "Hg2Se": 2880,
      "Ga2B": 2881,
      "lutonium": 2882,
      "O32": 2883,
      "VCl": 2884,
      "YSn": 2885,
      "CoSe": 2886,
      "TiSi": 2887,
      "HfTe": 2888,
      "HfCl": 2889,
      "HfW2": 2890,
      "NbAs": 2891,
      "TaB": 2892,
      "CaB": 2893,
      "LiAl": 2894,
      "SrIn": 2895,
      "SrCd": 2896,
      "SrGa": 2897,
      "SrCa3": 2898,
      "AuSc": 2899,
      "AuRu": 2900,
      "MoSi": 2901,
      "NaHf2": 2902,
      "IrCl": 2903,
      "HgCl": 2904,
      "distannen": 2905,
      "Sn2Si": 2906,
      "Au2Sn": 2907,
      "Ag2Sn": 2908,
      "nitride": 2909,
      "distannene": 2910,
      "772": 2911,
      "KCa2": 2912,
      "WZr": 2913,
      "WBr": 2914,
      "mfc": 2915,
      "silane": 2916,
      "MgBi": 2917,
      "MgW2": 2918,
      "ZrAs": 2919,
      "ZrCl": 2920,
      "ZrNb2": 2921,
      "HfNb2": 2922,
      "LaSn": 2923,
      "LaSb": 2924,
      "LaNb2": 2925,
      "TaBi": 2926,
      "TaTe": 2927,
      "CaSb": 2928,
      "CaLa2": 2929,
      "CaSc2": 2930,
      "LiSn": 2931,
      "LiLa2": 2932,
      "PbFe1": 2933,
      "SrPb": 2934,
      "SrBr": 2935,
      "SrTi2": 2936,
      "BaGe": 2937,
      "MoCl": 2938,
      "NaLa2": 2939,
      "GaSe": 2940,
      "Ga12": 2941,
      "BeCd": 2942,
      "thirteen": 2943,
      "tetra": 2944,
      "Pb2Se": 2945,
      "Te2Br": 2946,
      "Cu2Bi": 2947,
      "Ag2Sb": 2948,
      "Ga2Sn": 2949,
      "mfcd": 2950,
      "BAg": 2951,
      "PAu": 2952,
      "YPb": 2953,
      "ff": 2954,
      "MgCl": 2955,
      "MgTa2": 2956,
      "MgMg12": 2957,
      "NiNi12": 2958,
      "NbNb12": 2959,
      "LaGe": 2960,
      "LaV2": 2961,
      "LaPt2": 2962,
      "LaCo2": 2963,
      "TaV2": 2964,
      "ScP": 2965,
      "PtBr": 2966,
      "AgAs": 2967,
      "SrHf2": 2968,
      "SrV2": 2969,
      "AuAu12": 2970,
      "CrAs": 2971,
      "BeTi2": 2972,
      "1213": 2973,
      "Ac3": 2974,
      "Tl2B": 2975,
      "Tl2Al": 2976,
      "Au2Si": 2977,
      "Cu2Sn": 2978,
      "P2Cl": 2979,
      "Ge2P": 2980,
      "H2O": 2981,
      "peroxide": 2982,
      "KW2": 2983,
      "U4": 2984,
      "oy": 2985,
      "TiP": 2986,
      "HfTi2": 2987,
      "HfHf12": 2988,
      "NbSi": 2989,
      "ScBr": 2990,
      "LiHf2": 2991,
      "LiY2": 2992,
      "BaSb": 2993,
      "BaTi2": 2994,
      "MoB": 2995,
      "MoP": 2996,
      "NaV2": 2997,
      "CrB": 2998,
      "GaNa": 2999,
      "SbV": 3000,
      "In2Te": 3001,
      "Al2Cl": 3002,
      "Cu2Ge": 3003,
      "Ga2Al": 3004,
      "lambda2": 3005,
      "Pd1Nb1": 3006,
      "KNb2": 3007,
      "VBr": 3008,
      "W5": 3009,
      "cs": 3010,
      "InCr": 3011,
      "AlAl12": 3012,
      "MgSn": 3013,
      "NbP": 3014,
      "LaPb": 3015,
      "TaCu": 3016,
      "AgNb1": 3017,
      "BaPb": 3018,
      "Na5": 3019,
      "Na6": 3020,
      "IrP": 3021,
      "ReTe": 3022,
      "CrCl": 3023,
      "BeB": 3024,
      "Te6": 3025,
      "Ge12": 3026,
      "Rb6": 3027,
      "Sn2Bi": 3028,
      "Pb2Br": 3029,
      "Tl2Pb": 3030,
      "Au2Ag": 3031,
      "Cu2Se": 3032,
      "As2Te": 3033,
      "Rh2Pb": 3034,
      "potassio": 3035,
      "BGa": 3036,
      "H6": 3037,
      "H7": 3038,
      "MgAs": 3039,
      "ZrTi2": 3040,
      "FeZr": 3041,
      "LaBr": 3042,
      "LaTc2": 3043,
      "Ta5": 3044,
      "CaAg": 3045,
      "CaV2": 3046,
      "ScAl": 3047,
      "PbCr": 3048,
      "Cd6": 3049,
      "CdRh": 3050,
      "BaPt": 3051,
      "BaV2": 3052,
      "BiMo": 3053,
      "Mo8": 3054,
      "MoC": 3055,
      "MoSe": 3056,
      "NaB": 3057,
      "TcCl": 3058,
      "GaCd": 3059,
      "Th3": 3060,
      "Yb4": 3061,
      "Pb2Te": 3062,
      "Tl2Br": 3063,
      "Cu2Tl": 3064,
      "Cd2Pb": 3065,
      "Pd2Cl": 3066,
      "Ge2Bi": 3067,
      "InIn12": 3068,
      "B5": 3069,
      "VSb": 3070,
      "YSe": 3071,
      "yne": 3072,
      "MgAg": 3073,
      "TaNb2": 3074,
      "LiGa": 3075,
      "SrSn": 3076,
      "SrCr2": 3077,
      "AuP": 3078,
      "MoTe": 3079,
      "NaPb": 3080,
      "NaBi": 3081,
      "NaNi1": 3082,
      "Ru9": 3083,
      "Ir5": 3084,
      "HgP": 3085,
      "OsBr": 3086,
      "BeBe": 3087,
      "BeCl": 3088,
      "BeHf2": 3089,
      "In2Pb": 3090,
      "In2Cl": 3091,
      "Tl2Si": 3092,
      "Tl2As": 3093,
      "Al2Si": 3094,
      "Al2Br": 3095,
      "Cd2Br": 3096,
      "Ag2In": 3097,
      "Zn2Se": 3098,
      "hg": 3099,
      "CuCu12": 3100,
      "FeO": 3101,
      "FeMn": 3102,
      "FeTe": 3103,
      "La8": 3104,
      "Ca5": 3105,
      "CaCl": 3106,
      "Sc8": 3107,
      "PtSc": 3108,
      "AgZr": 3109,
      "CdP": 3110,
      "MnP": 3111,
      "BaB": 3112,
      "MoBr": 3113,
      "NaP": 3114,
      "RuBr": 3115,
      "Se12": 3116,
      "cup": 3117,
      "carbide": 3118,
      "Sn2Sb": 3119,
      "Au2Tl": 3120,
      "Pd2Pb": 3121,
      "Ge2Br": 3122,
      "Ga2Te": 3123,
      "H2O2": 3124,
      "KLa2": 3125,
      "KBe2": 3126,
      "P5": 3127,
      "YCr2": 3128,
      "YRh2": 3129,
      "AlSc": 3130,
      "MgTl": 3131,
      "ZrSb": 3132,
      "ZrV2": 3133,
      "ZrTa2": 3134,
      "TiGe": 3135,
      "TiCl": 3136,
      "Fe12": 3137,
      "NiV": 3138,
      "LaPd2": 3139,
      "LaW2": 3140,
      "ScTc2": 3141,
      "LiRu": 3142,
      "LiTa2": 3143,
      "LiBe2": 3144,
      "Pt5": 3145,
      "AgAg12": 3146,
      "PbPb12": 3147,
      "AuCr": 3148,
      "NaAl": 3149,
      "NaZr2": 3150,
      "NaFe2": 3151,
      "Os8": 3152,
      "CrCr12": 3153,
      "BeZr2": 3154,
      "O3F": 3155,
      "Sn2Te": 3156,
      "Pb2Sn": 3157,
      "Tl2Sn": 3158,
      "Tl2Se": 3159,
      "Si2As": 3160,
      "Au2Al": 3161,
      "Cu2In": 3162,
      "Cd2Se": 3163,
      "Cd2As": 3164,
      "Ge2Sb": 3165,
      "Ge2Te": 3166,
      "Ge2Se": 3167,
      "Hg2Cl": 3168,
      "Zn2In": 3169,
      "Ir2Bi": 3170,
      "Ba3Sn": 3171,
      "HO": 3172,
      "WAs": 3173,
      "YNi2": 3174,
      "YTc2": 3175,
      "Mg1": 3176,
      "MgSe": 3177,
      "HfTa2": 3178,
      "Nb5": 3179,
      "LaCr2": 3180,
      "PdSe": 3181,
      "CaY2": 3182,
      "CaMn2": 3183,
      "PtRh": 3184,
      "SrBi": 3185,
      "SrW2": 3186,
      "BaSc2": 3187,
      "MoAs": 3188,
      "NaCr2": 3189,
      "Re5": 3190,
      "BeBr": 3191,
      "As12": 3192,
      "umb": 3193,
      "Tm3": 3194,
      "Pb2P": 3195,
      "Pb2As": 3196,
      "Si2Br": 3197,
      "Pt2Au": 3198,
      "Ni2Te": 3199,
      "Sr3Cd": 3200,
      "Cd3Sn": 3201,
      "plumb": 3202,
      "bromine": 3203,
      "sulfide": 3204,
      "7726": 3205,
      "CO": 3206,
      "H12": 3207,
      "KPt": 3208,
      "KTl": 3209,
      "KTa2": 3210,
      "O13": 3211,
      "InZn": 3212,
      "MgY2": 3213,
      "MgMo2": 3214,
      "ZrSi": 3215,
      "ZrNi2": 3216,
      "TiRu2": 3217,
      "NbSe": 3218,
      "PdSc": 3219,
      "PdMo": 3220,
      "CaPb": 3221,
      "CaCd": 3222,
      "CaHf2": 3223,
      "CaMo2": 3224,
      "CaBe2": 3225,
      "ScMo2": 3226,
      "Ag5": 3227,
      "AgNi": 3228,
      "CdCd12": 3229,
      "SrP": 3230,
      "BaAl": 3231,
      "BaSi": 3232,
      "NaCl": 3233,
      "NaMn2": 3234,
      "NaBe2": 3235,
      "RuSb": 3236,
      "HgBr": 3237,
      "ReCl": 3238,
      "SiO": 3239,
      "In2As": 3240,
      "Tl2Ge": 3241,
      "Al2B": 3242,
      "Cd2Sb": 3243,
      "Sb2Te": 3244,
      "Ge2Cl": 3245,
      "Hg2B": 3246,
      "As2Cl": 3247,
      "B2Te": 3248,
      "KHf2": 3249,
      "NO": 3250,
      "POs": 3251,
      "WP": 3252,
      "WSe": 3253,
      "YB": 3254,
      "YIr2": 3255,
      "MgNb2": 3256,
      "ZrMo2": 3257,
      "TiC": 3258,
      "TiO3": 3259,
      "HfSe": 3260,
      "LaHf2": 3261,
      "TaIn": 3262,
      "AgP": 3263,
      "AgMg": 3264,
      "CdMo": 3265,
      "SrFe2": 3266,
      "SrMo2": 3267,
      "BaCa3": 3268,
      "NaTi2": 3269,
      "NaY2": 3270,
      "ZnS": 3271,
      "TcSe": 3272,
      "HgRe": 3273,
      "Sn2Ge": 3274,
      "Al2Te": 3275,
      "Au2Cu": 3276,
      "Cd2Zn": 3277,
      "Ag2Tl": 3278,
      "P2Br": 3279,
      "Hg2Br": 3280,
      "Ga2Se": 3281,
      "Se2Br": 3282,
      "As2P": 3283,
      "As2Br": 3284,
      "Zn2P": 3285,
      "La3In": 3286,
      "hydride": 3287,
      "stibanylidyne": 3288,
      "CO3": 3289,
      "KSc2": 3290,
      "VSe": 3291,
      "WCl": 3292,
      "YW2": 3293,
      "uh": 3294,
      "anide": 3295,
      "cl5": 3296,
      "ZrTc2": 3297,
      "HfPb": 3298,
      "NbBr": 3299,
      "LaMo2": 3300,
      "ScCl": 3301,
      "ScTa2": 3302,
      "LiNi": 3303,
      "PbOs": 3304,
      "AuTa": 3305,
      "BaCr2": 3306,
      "MoMo12": 3307,
      "NaSr3": 3308,
      "HgNi": 3309,
      "ReRe12": 3310,
      "CrOs2": 3311,
      "GaCl": 3312,
      "BeCu": 3313,
      "Ce3": 3314,
      "In2Si": 3315,
      "In2Ge": 3316,
      "Tl2Bi": 3317,
      "Cu2P": 3318,
      "Pd2Sb": 3319,
      "Pd2Ge": 3320,
      "Hg2Pb": 3321,
      "B2Pb": 3322,
      "K3Sn": 3323,
      "antimonide": 3324,
      "SrSr12": 3325,
      "KPd": 3326,
      "KCl": 3327,
      "PAg": 3328,
      "WB": 3329,
      "MgTi2": 3330,
      "CoCo12": 3331,
      "Zr5": 3332,
      "TaCl": 3333,
      "CaBi": 3334,
      "CaGe": 3335,
      "LiNi1": 3336,
      "PbMn": 3337,
      "PbAu": 3338,
      "Au5": 3339,
      "IrSe": 3340,
      "BeNi": 3341,
      "BeNb2": 3342,
      "AsTc": 3343,
      "Tb3": 3344,
      "Al2Sb": 3345,
      "Au2In": 3346,
      "Au2Hg": 3347,
      "Cu2Al": 3348,
      "Cu2As": 3349,
      "Ag2As": 3350,
      "Pt2In": 3351,
      "P2Se": 3352,
      "Ge2As": 3353,
      "Hg2Al": 3354,
      "Hg2Cd": 3355,
      "Ga2P": 3356,
      "As2Se": 3357,
      "B2Cl": 3358,
      "La3Tl": 3359,
      "fifteen": 3360,
      "lambda1": 3361,
      "methane": 3362,
      "I2": 3363,
      "KZn": 3364,
      "KBr": 3365,
      "Plutonium": 3366,
      "VP": 3367,
      "WTe": 3368,
      "YAs": 3369,
      "dt": 3370,
      "pr": 3371,
      "xsi": 3372,
      "anylidy": 3373,
      "MgFe2": 3374,
      "MgO5": 3375,
      "ZrTe": 3376,
      "HfRh2": 3377,
      "NbW2": 3378,
      "LaB": 3379,
      "LaP": 3380,
      "LaNi2": 3381,
      "LaRe2": 3382,
      "TaCr2": 3383,
      "SnPb3": 3384,
      "ScW2": 3385,
      "LiIn": 3386,
      "LiMg2": 3387,
      "SrSc2": 3388,
      "SrTa2": 3389,
      "BaGa": 3390,
      "Zn5": 3391,
      "ReBr": 3392,
      "CrTe": 3393,
      "CrSe": 3394,
      "BeMo2": 3395,
      "monotelluride": 3396,
      "125": 3397,
      "Rb4": 3398,
      "Cu2Te": 3399,
      "Cd2Tl": 3400,
      "Ag2Zn": 3401,
      "Hg2Bi": 3402,
      "Ga2Pb": 3403,
      "Co2Pb": 3404,
      "dtxsi": 3405,
      "dtxsid": 3406,
      "CC": 3407,
      "F5": 3408,
      "K1": 3409,
      "KZr2": 3410,
      "O11": 3411,
      "WO3": 3412,
      "WMo2": 3413,
      "thene": 3414,
      "ZrRh2": 3415,
      "TiV2": 3416,
      "CaBa": 3417,
      "Ca12": 3418,
      "BaRu2": 3419,
      "diplumb": 3420,
      "OsRu2": 3421,
      "romanganese": 3422,
      "Pr3": 3423,
      "In2Br": 3424,
      "Bi2P": 3425,
      "Al2Pb": 3426,
      "Al2Bi": 3427,
      "Cu2Sb": 3428,
      "Cd2Cl": 3429,
      "Ag2Cu": 3430,
      "Ag2Ga": 3431,
      "Ag2Te": 3432,
      "Ga2Cl": 3433,
      "Zn2Pb": 3434,
      "Zn2Si": 3435,
      "Zn2Sb": 3436,
      "B2Ge": 3437,
      "Ir2Pb": 3438,
      "hydroxide": 3439,
      "VW1": 3440,
      "ferromanganese": 3441,
      "diplumbyne": 3442,
      "2F2": 3443,
      "YSb": 3444,
      "odi": 3445,
      "MgAu": 3446,
      "ZrMg": 3447,
      "ZrPb": 3448,
      "ZrPt2": 3449,
      "ZrCr2": 3450,
      "Cu9": 3451,
      "Ti8": 3452,
      "TiSe": 3453,
      "TiTi12": 3454,
      "LaBe": 3455,
      "LaY3": 3456,
      "CaSi": 3457,
      "CaPt2": 3458,
      "ScNb2": 3459,
      "ScV2": 3460,
      "ScOs2": 3461,
      "LiV2": 3462,
      "SrMn2": 3463,
      "MnTa": 3464,
      "BaHg": 3465,
      "BaFe2": 3466,
      "BaMn2": 3467,
      "BaMo2": 3468,
      "BaOs2": 3469,
      "NaW2": 3470,
      "dibismu": 3471,
      "TcAs": 3472,
      "OsSe": 3473,
      "GeTi": 3474,
      "Au2Zn": 3475,
      "Cu2Cd": 3476,
      "Cu2Zn": 3477,
      "Cd2Bi": 3478,
      "Ag2Al": 3479,
      "Ag2Cd": 3480,
      "Ag2Hg": 3481,
      "Zn2Cl": 3482,
      "LiCo1": 3483,
      "dibismuthene": 3484,
      "C1": 3485,
      "KSn": 3486,
      "KGa": 3487,
      "KSi": 3488,
      "KSb": 3489,
      "KMn2": 3490,
      "O12": 3491,
      "YGa": 3492,
      "YTe": 3493,
      "YCl": 3494,
      "az": 3495,
      "MgV2": 3496,
      "TiMn2": 3497,
      "LaAs": 3498,
      "CaFe2": 3499,
      "CaCr2": 3500,
      "AgMo": 3501,
      "PbNi1": 3502,
      "BaSn": 3503,
      "BaBi": 3504,
      "BaCo2": 3505,
      "BaTc2": 3506,
      "NaTc2": 3507,
      "RuCl": 3508,
      "In2B": 3509,
      "In2Se": 3510,
      "Bi2Cl": 3511,
      "Al2As": 3512,
      "Au2Cd": 3513,
      "Cd2Al": 3514,
      "Cd2Si": 3515,
      "Ga2Si": 3516,
      "Co2Ag": 3517,
      "Sr3Sn": 3518,
      "Ta8Tl4": 3519,
      "methylidyne": 3520,
      "BB": 3521,
      "KCd": 3522,
      "KOs2": 3523,
      "KNa3": 3524,
      "NO3": 3525,
      "OMg5": 3526,
      "YRe2": 3527,
      "ZrP": 3528,
      "TiZr": 3529,
      "TiNb2": 3530,
      "FeNb": 3531,
      "HfNi2": 3532,
      "NbOs2": 3533,
      "LiPd": 3534,
      "LiMo2": 3535,
      "PbAu3": 3536,
      "Sr5": 3537,
      "RhY": 3538,
      "NaPt": 3539,
      "NaNb1": 3540,
      "dihydrate": 3541,
      "TcRu2": 3542,
      "OsFe2": 3543,
      "1203": 3544,
      "Dy3": 3545,
      "Yb3": 3546,
      "In2P": 3547,
      "Tl2Cl": 3548,
      "Al2Se": 3549,
      "Au2Ga": 3550,
      "Au2Sb": 3551,
      "Ag2Si": 3552,
      "Hg2In": 3553,
      "Ga2As": 3554,
      "Zn2Ga": 3555,
      "B2Bi": 3556,
      "B2As": 3557,
      "Ba3Au": 3558,
      "Mg3Sn": 3559,
      "alumanylidyneiron": 3560,
      "KV2": 3561,
      "KCr2": 3562,
      "VV12": 3563,
      "TaTa12": 3564,
      "SnZn": 3565,
      "CaOs2": 3566,
      "AgHf": 3567,
      "PbNb1": 3568,
      "CdCa": 3569,
      "BaAu3": 3570,
      "NaNb2": 3571,
      "ZnZr": 3572,
      "ReTc2": 3573,
      "Si9": 3574,
      "Sb12": 3575,
      "Ce4": 3576,
      "Ho4": 3577,
      "Tb4": 3578,
      "Si2Se": 3579,
      "Au2B": 3580,
      "Au2Ge": 3581,
      "Cu2B": 3582,
      "Pd2Cd": 3583,
      "Pd2Hg": 3584,
      "Ni2Al": 3585,
      "Zn2Al": 3586,
      "Zn2Sn": 3587,
      "Zn2Ge": 3588,
      "B2Se": 3589,
      "K3In": 3590,
      "alumane": 3591,
      "Sr4Y8": 3592,
      "CaTi1": 3593,
      "CaCa12": 3594,
      "stannane": 3595,
      "hg2": 3596,
      "KMo2": 3597,
      "KTc2": 3598,
      "S7": 3599,
      "VMo2": 3600,
      "WW12": 3601,
      "Mg8": 3602,
      "CoO": 3603,
      "TiOs2": 3604,
      "HfOs2": 3605,
      "HfIr2": 3606,
      "NbRh2": 3607,
      "TaRe2": 3608,
      "PdY": 3609,
      "ScRe2": 3610,
      "LiK": 3611,
      "Li12": 3612,
      "PtPt12": 3613,
      "ickel": 3614,
      "SrLi3": 3615,
      "BaP": 3616,
      "NaTe": 3617,
      "RuO2": 3618,
      "HgY": 3619,
      "ReY": 3620,
      "SiSi": 3621,
      "BeTa2": 3622,
      "BrY": 3623,
      "Gd3": 3624,
      "Pu3": 3625,
      "Yb2": 3626,
      "Cu2Si": 3627,
      "Cd2P": 3628,
      "Cd2Ge": 3629,
      "Ag2Pb": 3630,
      "Pd2Tl": 3631,
      "Pd2Te": 3632,
      "Pt2Tl": 3633,
      "B2Sn": 3634,
      "Ba3Bi": 3635,
      "Ba3Tl": 3636,
      "Ba3Zn": 3637,
      "Sr3Tl": 3638,
      "Y4Ru3": 3639,
      "yllithium": 3640,
      "CdSi1": 3641,
      "12139": 3642,
      "BO3": 3643,
      "C6": 3644,
      "VCa": 3645,
      "MgTc2": 3646,
      "MgRe2": 3647,
      "TiZn": 3648,
      "TiW2": 3649,
      "NbV2": 3650,
      "Sn12": 3651,
      "Sc5": 3652,
      "LiCr2": 3653,
      "PtHf": 3654,
      "PtPt6": 3655,
      "Pb6": 3656,
      "SrTl": 3657,
      "SrTc2": 3658,
      "SrRe2": 3659,
      "AuCl": 3660,
      "RhRh12": 3661,
      "BaLi3": 3662,
      "ZnZn12": 3663,
      "IrBr": 3664,
      "BeFe2": 3665,
      "1205": 3666,
      "7803": 3667,
      "Tl2P": 3668,
      "Au2Br": 3669,
      "Cd2Sn": 3670,
      "Ge2Si": 3671,
      "Hg2Sb": 3672,
      "Ga2Ge": 3673,
      "Zn2Bi": 3674,
      "Zn2Tl": 3675,
      "Ba3Pt": 3676,
      "Nb4Cd4": 3677,
      "BaZn1": 3678,
      "2N2": 3679,
      "HO2": 3680,
      "KBi": 3681,
      "KFe2": 3682,
      "OF3": 3683,
      "W8": 3684,
      "YOs2": 3685,
      "YRu2": 3686,
      "triox": 3687,
      "MgO": 3688,
      "Mg30": 3689,
      "CoCr": 3690,
      "HfRu2": 3691,
      "NbIr2": 3692,
      "LaCl": 3693,
      "TaC": 3694,
      "TaMo2": 3695,
      "ScMn2": 3696,
      "ScRu2": 3697,
      "LiFe2": 3698,
      "AgCa": 3699,
      "SrOs2": 3700,
      "SrRu2": 3701,
      "NaNi": 3702,
      "Ir8": 3703,
      "Iron": 3704,
      "OsB": 3705,
      "OsCl": 3706,
      "AsZn": 3707,
      "Pu4": 3708,
      "Tl2In": 3709,
      "Au2P": 3710,
      "Au2Pb": 3711,
      "Ag2Ge": 3712,
      "Ba3La": 3713,
      "K3Bi": 3714,
      "K3Hg": 3715,
      "Ta4Tl4": 3716,
      "Mg6Ir4": 3717,
      "B8": 3718,
      "BN": 3719,
      "KAl": 3720,
      "KCu": 3721,
      "KRh2": 3722,
      "PCd": 3723,
      "VW2": 3724,
      "VMn2": 3725,
      "MgMn2": 3726,
      "MgCo2": 3727,
      "MgRu2": 3728,
      "Zr1": 3729,
      "ZrOs2": 3730,
      "ZrZr12": 3731,
      "TiCr2": 3732,
      "NiMo": 3733,
      "NbMo2": 3734,
      "CaBr": 3735,
      "LiNb2": 3736,
      "AuMg": 3737,
      "Rh8": 3738,
      "BaBr": 3739,
      "BaRe2": 3740,
      "IrIr12": 3741,
      "ReSe": 3742,
      "GaTa": 3743,
      "BeMn2": 3744,
      "1206": 3745,
      "Cs6": 3746,
      "Er4": 3747,
      "Pa3": 3748,
      "Cd2Ga": 3749,
      "Pt2Cd": 3750,
      "Pt2Cl": 3751,
      "Ni2In": 3752,
      "Ni2Sn": 3753,
      "Ni2Zn": 3754,
      "Zn2B": 3755,
      "Rh2Cd": 3756,
      "Sn3Bi": 3757,
      "Hg3Bi": 3758,
      "Co5Pt3": 3759,
      "LaCo1": 3760,
      "BaBa12": 3761,
      "CH3": 3762,
      "KTe": 3763,
      "KIr2": 3764,
      "O10": 3765,
      "SO3": 3766,
      "SF3": 3767,
      "SO4": 3768,
      "cr": 3769,
      "AlCu": 3770,
      "MgPb": 3771,
      "MgBe2": 3772,
      "TiTa2": 3773,
      "FeO3": 3774,
      "Hf5": 3775,
      "HfTc2": 3776,
      "NbSb": 3777,
      "TaFe2": 3778,
      "TaTc2": 3779,
      "CaTa2": 3780,
      "ScPb": 3781,
      "ScCr2": 3782,
      "LiW2": 3783,
      "MnO3": 3784,
      "NaSn": 3785,
      "NaSe": 3786,
      "NaAs": 3787,
      "RuP": 3788,
      "RuBa": 3789,
      "HgPb3": 3790,
      "BeV2": 3791,
      "BeCr2": 3792,
      "Pr4": 3793,
      "Ag2B": 3794,
      "Pt2Pb": 3795,
      "Pt2Sb": 3796,
      "Hg2Te": 3797,
      "Hg2Ge": 3798,
      "Co2P": 3799,
      "Co2Sb": 3800,
      "Zn2Te": 3801,
      "Zn2As": 3802,
      "Rh2Cl": 3803,
      "La3Pb": 3804,
      "La3Cd": 3805,
      "hydrox": 3806,
      "KK12": 3807,
      "I6": 3808,
      "KGe": 3809,
      "NCl": 3810,
      "NF3": 3811,
      "VIr2": 3812,
      "WMn2": 3813,
      "hcl": 3814,
      "jodi": 3815,
      "po": 3816,
      "Co7": 3817,
      "CoO3": 3818,
      "ZrFe2": 3819,
      "ZrRu2": 3820,
      "CuC": 3821,
      "La9": 3822,
      "Ca8": 3823,
      "LiBr": 3824,
      "SrLa3": 3825,
      "AuRh": 3826,
      "RhBa": 3827,
      "BaCl": 3828,
      "MoFe2": 3829,
      "NaGa": 3830,
      "Na12": 3831,
      "TeSe3": 3832,
      "BrTa": 3833,
      "Pm3": 3834,
      "Ag2Br": 3835,
      "Pt2Cu": 3836,
      "Ni2Cd": 3837,
      "Ni2Se": 3838,
      "Ga2Sb": 3839,
      "Co2Pd": 3840,
      "Ba3Al": 3841,
      "K3Zn": 3842,
      "La4Ag3": 3843,
      "Hf3Hg": 3844,
      "Sr4Y4": 3845,
      "SrTi1": 3846,
      "jodid": 3847,
      "8W4": 3848,
      "BAu": 3849,
      "KIn": 3850,
      "ORu3": 3851,
      "VTc2": 3852,
      "W1": 3853,
      "YMg3": 3854,
      "io": 3855,
      "lsilver": 3856,
      "q4": 3857,
      "sw": 3858,
      "te2": 3859,
      "InNb": 3860,
      "HfRe2": 3861,
      "NbTc2": 3862,
      "NbRe2": 3863,
      "TaOs2": 3864,
      "TaIr2": 3865,
      "rojodid": 3866,
      "CaTc2": 3867,
      "Casw": 3868,
      "LiCl": 3869,
      "PbMo": 3870,
      "BaAs": 3871,
      "BaIr2": 3872,
      "NaTa2": 3873,
      "NaMo2": 3874,
      "Tl6": 3875,
      "Tl8": 3876,
      "RuFe2": 3877,
      "RuIr2": 3878,
      "TcTc12": 3879,
      "ReP": 3880,
      "ReMn2": 3881,
      "BeW2": 3882,
      "TeTe12": 3883,
      "Np4": 3884,
      "Ho3": 3885,
      "ellsilver": 3886,
      "Th4": 3887,
      "P2O7": 3888,
      "Hg2P": 3889,
      "Hg2Ga": 3890,
      "Co2As": 3891,
      "B2Sb": 3892,
      "Ba3Hg": 3893,
      "Sr3Y": 3894,
      "Ca3Bi": 3895,
      "Fe3Mo4": 3896,
      "Ag3Bi": 3897,
      "hydrobromide": 3898,
      "Co4B3": 3899,
      "LiLi12": 3900,
      "mfcd00": 3901,
      "BeBe12": 3902,
      "cuprojodid": 3903,
      "ORu3O": 3904,
      "Caswellsilver": 3905,
      "Caswellsilverite": 3906,
      "BO": 3907,
      "CNb4": 3908,
      "KRe2": 3909,
      "PAs": 3910,
      "VO2": 3911,
      "WOs2": 3912,
      "Y1": 3913,
      "fe": 3914,
      "ime": 3915,
      "In5": 3916,
      "MgIr2": 3917,
      "ZrB": 3918,
      "Cu7": 3919,
      "NbRu2": 3920,
      "NbC4": 3921,
      "SnY": 3922,
      "CaRu2": 3923,
      "LiAs": 3924,
      "PtBa": 3925,
      "Sr8": 3926,
      "SrIr2": 3927,
      "NaAg": 3928,
      "NaSb": 3929,
      "NaGe": 3930,
      "HgBi3": 3931,
      "CrRh2": 3932,
      "BeSe": 3933,
      "lanylidyne": 3934,
      "Ag2Bi": 3935,
      "Ag2Se": 3936,
      "Pd2B": 3937,
      "Pd2Br": 3938,
      "Ni2Bi": 3939,
      "Hg2Sn": 3940,
      "Co2Cu": 3941,
      "Rh2Ni": 3942,
      "Ba3In": 3943,
      "K3Ga": 3944,
      "Ca3Sn": 3945,
      "K4Hf4": 3946,
      "Sn3Sb": 3947,
      "Sr4Mn3": 3948,
      "Tl3In": 3949,
      "Tl3Bi": 3950,
      "Ba4Os3": 3951,
      "SrZr1": 3952,
      "prime": 3953,
      "azane": 3954,
      "C7": 3955,
      "CP": 3956,
      "KSr3": 3957,
      "VTe": 3958,
      "WTc2": 3959,
      "WRe2": 3960,
      "dic": 3961,
      "iobium": 3962,
      "CoMo": 3963,
      "HfV2": 3964,
      "NbMn2": 3965,
      "CaSe": 3966,
      "CaRe2": 3967,
      "ScSc12": 3968,
      "LiB": 3969,
      "LiP": 3970,
      "PtY": 3971,
      "SrSe": 3972,
      "BaK": 3973,
      "BaSr3": 3974,
      "BiPb3": 3975,
      "MoTc2": 3976,
      "NaRu2": 3977,
      "TcO2": 3978,
      "OsP": 3979,
      "OsIr2": 3980,
      "CrO3": 3981,
      "GaGa12": 3982,
      "TeV": 3983,
      "GeCd": 3984,
      "Br6": 3985,
      "eniobium": 3986,
      "Pa4": 3987,
      "Sr2Ca4": 3988,
      "Pd2Si": 3989,
      "Pt2Hg": 3990,
      "Ni2P": 3991,
      "Ni2Sb": 3992,
      "Hg2Zn": 3993,
      "Co2B": 3994,
      "Rh2B": 3995,
      "O2F": 3996,
      "In3Bi": 3997,
      "bismuthanylidyne": 3998,
      "H3O": 3999,
      "fluor": 4000,
      "ylideneniobium": 4001,
      "SrCu1": 4002,
      "NaNa12": 4003,
      "GPa": 4004,
      "P9": 4005,
      "VRu2": 4006,
      "VRe2": 4007,
      "YY4": 4008,
      "YCd3": 4009,
      "YY12": 4010,
      "eine": 4011,
      "m2": 4012,
      "nb": 4013,
      "ous": 4014,
      "AlO3": 4015,
      "MgTe": 4016,
      "MgOs2": 4017,
      "Fe8": 4018,
      "HfMn2": 4019,
      "HfCo2": 4020,
      "NbFe2": 4021,
      "TaSe": 4022,
      "TaMn2": 4023,
      "PdK": 4024,
      "CaIr2": 4025,
      "AgSc": 4026,
      "PbZr1": 4027,
      "Mn7": 4028,
      "MoK": 4029,
      "NaRe2": 4030,
      "IrIr6": 4031,
      "CrRu2": 4032,
      "nerhenium": 4033,
      "Ce6": 4034,
      "Ba2Ca4": 4035,
      "Si2Cl": 4036,
      "Ag2P": 4037,
      "Ag2Cl": 4038,
      "Pd2Au": 4039,
      "Pd2Zn": 4040,
      "Pt2Al": 4041,
      "Ni2Pb": 4042,
      "Hg2Si": 4043,
      "Co2Bi": 4044,
      "Rh2Bi": 4045,
      "B2Br": 4046,
      "Ba3Ag": 4047,
      "Ba3Cr": 4048,
      "K3Tl": 4049,
      "Ca3Tl": 4050,
      "Y4Sb3": 4051,
      "Y3Pb": 4052,
      "Tl3Ga": 4053,
      "Li4Ni6": 4054,
      "CaZr1": 4055,
      "tellanylidene": 4056,
      "AgGe1": 4057,
      "einecs": 4058,
      "7GPa": 4059,
      "PSi": 4060,
      "S8": 4061,
      "VGe": 4062,
      "VO3": 4063,
      "WIr2": 4064,
      "mp": 4065,
      "ino": 4066,
      "rous": 4067,
      "irane": 4068,
      "Mg7": 4069,
      "MgMg4": 4070,
      "Zr8": 4071,
      "ZrIr2": 4072,
      "CuO2": 4073,
      "TiTe": 4074,
      "NiY": 4075,
      "NiCr": 4076,
      "La5": 4077,
      "SnAg": 4078,
      "CaMg3": 4079,
      "ScPt2": 4080,
      "LiBi": 4081,
      "Ag8": 4082,
      "PbMg1": 4083,
      "Cd8": 4084,
      "MnOs2": 4085,
      "AuHf": 4086,
      "BaTl": 4087,
      "Bi8": 4088,
      "RuRu12": 4089,
      "TcOs2": 4090,
      "ReOs2": 4091,
      "ReRu2": 4092,
      "Tellurium": 4093,
      "monoselenide": 4094,
      "Np3": 4095,
      "Au2Cl": 4096,
      "Cu2Hg": 4097,
      "Cu2Br": 4098,
      "Pt2Br": 4099,
      "Ni2B": 4100,
      "Ni2Cu": 4101,
      "Ni2Ga": 4102,
      "Ni2Ge": 4103,
      "Ni2Cl": 4104,
      "Hg2Tl": 4105,
      "Zn2Br": 4106,
      "Ba3Ga": 4107,
      "Sr3In": 4108,
      "La3Zr": 4109,
      "Mg3Bi": 4110,
      "Rh3O": 4111,
      "Zr4Te3": 4112,
      "NH4": 4113,
      "BiBi12": 4114,
      "BB12": 4115,
      "7Re": 4116,
      "CH": 4117,
      "O14": 4118,
      "VP1": 4119,
      "Y5": 4120,
      "YBa": 4121,
      "ack": 4122,
      "bl": 4123,
      "~-": 4124,
      "InTa": 4125,
      "lonium": 4126,
      "Co11": 4127,
      "HfCr2": 4128,
      "NbCr2": 4129,
      "LaSc3": 4130,
      "LaLa12": 4131,
      "LiTc2": 4132,
      "Pt7": 4133,
      "PtK": 4134,
      "AgC": 4135,
      "AgNa": 4136,
      "PbY": 4137,
      "PbSc": 4138,
      "PbZn": 4139,
      "RhO2": 4140,
      "MoCr2": 4141,
      "ZnC": 4142,
      "TcMn2": 4143,
      "TcBr3": 4144,
      "ReFe2": 4145,
      "SbRu": 4146,
      "Polonium": 4147,
      "Er3": 4148,
      "Au2Se": 4149,
      "Cu2Cl": 4150,
      "Pd2Al": 4151,
      "Pd2Ni": 4152,
      "Pt2P": 4153,
      "Pt2Sn": 4154,
      "Pt2Ag": 4155,
      "Ni2Tl": 4156,
      "Ni2Si": 4157,
      "Hg2As": 4158,
      "Co2Ge": 4159,
      "B2Si": 4160,
      "Ba3Pb": 4161,
      "Ba3Cd": 4162,
      "seventeen": 4163,
      "K4Pd3": 4164,
      "K4Pd4": 4165,
      "Y3Sn": 4166,
      "Y3Cd": 4167,
      "Sn3Te": 4168,
      "Cu3Al": 4169,
      "Sn4Ir4": 4170,
      "Mg4Ta4": 4171,
      "Li4Nb4": 4172,
      "alumanylidynetitanium": 4173,
      "anylidynerhenium": 4174,
      "black": 4175,
      "CF3": 4176,
      "HCl": 4177,
      "KLi3": 4178,
      "KK4": 4179,
      "WO2": 4180,
      "aoy": 4181,
      "faoy": 4182,
      "anylidene": 4183,
      "ZrMn2": 4184,
      "FeFe12": 4185,
      "NiO": 4186,
      "LaZr3": 4187,
      "SrRh2": 4188,
      "Ba5": 4189,
      "BaBa6": 4190,
      "BiAg": 4191,
      "NaOs2": 4192,
      "NaNa4": 4193,
      "Zn9": 4194,
      "ZnO": 4195,
      "Ir7": 4196,
      "TcIr2": 4197,
      "CrFe2": 4198,
      "SeRe": 4199,
      "7429": 4200,
      "Sm4": 4201,
      "Pu6": 4202,
      "Pr2": 4203,
      "Al2Cu": 4204,
      "Fe2Si2": 4205,
      "Au2Te": 4206,
      "Au2As": 4207,
      "Cu2Ga": 4208,
      "Pd2Ag": 4209,
      "Pd2As": 4210,
      "Pt2Bi": 4211,
      "Pt2Ge": 4212,
      "Co2Cl": 4213,
      "Ba3Os": 4214,
      "Ca3Br": 4215,
      "Ca3Y4": 4216,
      "Ca4Zn3": 4217,
      "Na4Pd3": 4218,
      "AlSiCu": 4219,
      "Ni5Pd4": 4220,
      "K6La4": 4221,
      "methyl": 4222,
      "VB1": 4223,
      "fffaoy": 4224,
      "uhfffaoy": 4225,
      "hydroxy": 4226,
      "PbSc1": 4227,
      "uhfffaoysa": 4228,
      "CTa4": 4229,
      "NO2": 4230,
      "NH3": 4231,
      "O15": 4232,
      "WC1": 4233,
      "ft": 4234,
      "Co1": 4235,
      "ZrRe2": 4236,
      "CuTi": 4237,
      "TiBe": 4238,
      "TiRe2": 4239,
      "TaC4": 4240,
      "SnK3": 4241,
      "PdO": 4242,
      "CaTe": 4243,
      "LiSe": 4244,
      "LiRu2": 4245,
      "AgPb3": 4246,
      "Pb8": 4247,
      "PbS": 4248,
      "SrMg3": 4249,
      "MnO": 4250,
      "MoRu2": 4251,
      "NaSi": 4252,
      "TlPb3": 4253,
      "HgSe3": 4254,
      "ReO3": 4255,
      "GaY": 4256,
      "GaO3": 4257,
      "Sb5": 4258,
      "GeC": 4259,
      "1114": 4260,
      "Tm4": 4261,
      "Cd2B": 4262,
      "Pd2In": 4263,
      "Pd2Sn": 4264,
      "Pt2Se": 4265,
      "Ni2Ag": 4266,
      "Ni2As": 4267,
      "Co2Pt": 4268,
      "Co2Tl": 4269,
      "Ba3Ge": 4270,
      "Sr3Nb": 4271,
      "Sr3Hg": 4272,
      "La4Cu3": 4273,
      "La4Mo4": 4274,
      "Ca3Te": 4275,
      "Y4Zn3": 4276,
      "Bi3Sb": 4277,
      "La3Bi": 4278,
      "K4P3": 4279,
      "K4Pt3": 4280,
      "Y3Hf": 4281,
      "Ag3As": 4282,
      "In3Ga": 4283,
      "Sb4Au3": 4284,
      "Li4Ga3": 4285,
      "V4As4": 4286,
      "V4Ga5": 4287,
      "TlGa1": 4288,
      "gallanylidyne": 4289,
      "Be5Pd4": 4290,
      "N5O": 4291,
      "K4Hf4Ta4": 4292,
      "372": 4293,
      "BY1": 4294,
      "CHf4": 4295,
      "F8": 4296,
      "O16": 4297,
      "SO": 4298,
      "VRh2": 4299,
      "VOs2": 4300,
      "WO4": 4301,
      "wsi": 4302,
      "AlSi2": 4303,
      "HfCd3": 4304,
      "NiO3": 4305,
      "SnO2": 4306,
      "SnBi3": 4307,
      "PdLi": 4308,
      "CaRh2": 4309,
      "PbGa": 4310,
      "RhRh6": 4311,
      "BiW": 4312,
      "BiNa3": 4313,
      "MoOs2": 4314,
      "NaCa3": 4315,
      "HgBr3": 4316,
      "Os7": 4317,
      "OsOs12": 4318,
      "CrRe2": 4319,
      "BeOs2": 4320,
      "BeRu2": 4321,
      "AsV": 4322,
      "tane": 4323,
      "RbF3": 4324,
      "049": 4325,
      "Cs4": 4326,
      "357": 4327,
      "Pt2Zn": 4328,
      "Ni2Au": 4329,
      "Ni2Br": 4330,
      "Co2Br": 4331,
      "Rh2Tl": 4332,
      "K3Cd": 4333,
      "La4Pd3": 4334,
      "La4Pt3": 4335,
      "Pb3Se": 4336,
      "Li3La4": 4337,
      "La3Se": 4338,
      "Fe3Co": 4339,
      "Ca4Cu3": 4340,
      "Hg3Se": 4341,
      "Ga3Pb": 4342,
      "Pt3Pb": 4343,
      "Ti3Al": 4344,
      "nial": 4345,
      "Hf4Bi3": 4346,
      "Nb4Sb3": 4347,
      "Ti4Pd6": 4348,
      "SrCa5": 4349,
      "BaMg1": 4350,
      "BaZr1": 4351,
      "Ni5Ir3": 4352,
      "Fe5Co3": 4353,
      "iii": 4354,
      "SiSi12": 4355,
      "F7": 4356,
      "HF": 4357,
      "ORh3O": 4358,
      "P8": 4359,
      "SS6": 4360,
      "VFe2": 4361,
      "WCr2": 4362,
      "_1": 4363,
      "ba": 4364,
      "anyl": 4365,
      "ZrZr4": 4366,
      "TiRh2": 4367,
      "Fe7": 4368,
      "HfO3": 4369,
      "HfHf4": 4370,
      "HfC4": 4371,
      "TaBr": 4372,
      "SnHg": 4373,
      "PdPd6": 4374,
      "ScFe2": 4375,
      "ScIr2": 4376,
      "LiPb": 4377,
      "PtO": 4378,
      "Cd5": 4379,
      "BaLa3": 4380,
      "BaAg3": 4381,
      "MoO3": 4382,
      "MoRh2": 4383,
      "TlAu3": 4384,
      "CrIr2": 4385,
      "SiO4": 4386,
      "Sb8": 4387,
      "Te5": 4388,
      "Ge8": 4389,
      "GeO3": 4390,
      "GeGe12": 4391,
      "12357": 4392,
      "Ce12": 4393,
      "SmLa": 4394,
      "Eu3": 4395,
      "Pd2Ga": 4396,
      "P2_1": 4397,
      "Co2Ni": 4398,
      "Ba3W": 4399,
      "Ba3Sr": 4400,
      "K3Au": 4401,
      "La4Ge3": 4402,
      "Ca3Sb": 4403,
      "Al3Bi": 4404,
      "Fe3Pd": 4405,
      "Ca4Nb4": 4406,
      "Hf3Tl": 4407,
      "Ga3Hg": 4408,
      "Sr4Rh3": 4409,
      "Zr3P": 4410,
      "Fe4Si4": 4411,
      "Ba4Re4": 4412,
      "Ti4Co5": 4413,
      "Cd4Sn4": 4414,
      "Fe5Os4": 4415,
      "selanylidenezirconium": 4416,
      "BiBi6": 4417,
      "Na8Fe2Si2": 4418,
      "12062": 4419,
      "nbb": 4420,
      "KRu2": 4421,
      "KMg3": 4422,
      "O31": 4423,
      "WRu2": 4424,
      "YPb3": 4425,
      "_71": 4426,
      "bc": 4427,
      "mg": 4428,
      "m_71": 4429,
      "pu": 4430,
      "hem_71": 4431,
      "InCd": 4432,
      "InGa3": 4433,
      "MgCr2": 4434,
      "CuS": 4435,
      "FeO4": 4436,
      "NbTi": 4437,
      "TaTa6": 4438,
      "ScRh2": 4439,
      "Li8": 4440,
      "PtC": 4441,
      "AgK3": 4442,
      "CdY": 4443,
      "SrPt3": 4444,
      "Ba8": 4445,
      "BaF3": 4446,
      "NaLi3": 4447,
      "TlO3": 4448,
      "TlTl4": 4449,
      "ZnSr": 4450,
      "ZnZn6": 4451,
      "GaPb3": 4452,
      "SiO3": 4453,
      "BeTc2": 4454,
      "TeS": 4455,
      "As5": 4456,
      "As8": 4457,
      "Cl12": 4458,
      "698": 4459,
      "bidium": 4460,
      "Mg2Cu": 4461,
      "Sr3Sb": 4462,
      "Ca3Hg": 4463,
      "Y4Ni3": 4464,
      "Y4As3": 4465,
      "La3Hg": 4466,
      "La3W4": 4467,
      "Zn3Bi": 4468,
      "amine": 4469,
      "Pt3Ag": 4470,
      "Cd3Bi": 4471,
      "Sn4Hg4": 4472,
      "Ta3Bi": 4473,
      "Ta3Rh6": 4474,
      "B3Br": 4475,
      "Ta4Sb3": 4476,
      "luoride": 4477,
      "H2Cl": 4478,
      "sily": 4479,
      "N3O2": 4480,
      "Li5Mn3": 4481,
      "alumanylidynecobalt": 4482,
      "Ta5Rh5": 4483,
      "mfcd00049": 4484,
      "bchem_71": 4485,
      "pubchem_71": 4486,
      "mfcd00049698": 4487,
      "BW1": 4488,
      "KB": 4489,
      "N7": 4490,
      "OBr": 4491,
      "O17": 4492,
      "PIn6": 4493,
      "SAu4": 4494,
      "VC": 4495,
      "YP": 4496,
      "cg": 4497,
      "fw": 4498,
      "iuh": 4499,
      "kup": 4500,
      "pd": 4501,
      "tmp": 4502,
      "vtmp": 4503,
      "tellur": 4504,
      "In8": 4505,
      "MgAu3": 4506,
      "MgCd3": 4507,
      "CuK": 4508,
      "CuO3": 4509,
      "TiIr2": 4510,
      "Hf1": 4511,
      "HfBi3": 4512,
      "NiBr3": 4513,
      "TaO3": 4514,
      "TaRu2": 4515,
      "TaGe3": 4516,
      "SnSb3": 4517,
      "AgBi3": 4518,
      "PbO3": 4519,
      "CdBi3": 4520,
      "CdAl3": 4521,
      "AuLa": 4522,
      "BaY3": 4523,
      "BaMg3": 4524,
      "BaNi3": 4525,
      "BaSc3": 4526,
      "Bi6": 4527,
      "BiFe1": 4528,
      "NaLiBa": 4529,
      "TlCd3": 4530,
      "ZnPb3": 4531,
      "Hg8": 4532,
      "HgK3": 4533,
      "HgSb3": 4534,
      "OsY": 4535,
      "ReBr3": 4536,
      "CrTc2": 4537,
      "SiC": 4538,
      "BeIr2": 4539,
      "raph": 4540,
      "Se7": 4541,
      "1067": 4542,
      "Br5": 4543,
      "Cl5": 4544,
      "Th8": 4545,
      "Pd2Cu": 4546,
      "Pt2Ga": 4547,
      "Ni2Hg": 4548,
      "Ba3Fe": 4549,
      "Ba3Hf": 4550,
      "K3Ag": 4551,
      "K3Ge": 4552,
      "La4Nb3": 4553,
      "La4V3": 4554,
      "Ca3Al": 4555,
      "Y4Os3": 4556,
      "Li3Se": 4557,
      "Li3Ni5": 4558,
      "La3Au": 4559,
      "K4Nb4": 4560,
      "Y3Bi": 4561,
      "Sn3Pb": 4562,
      "Sn3Br": 4563,
      "Ca4Ti4": 4564,
      "Hg3Pb": 4565,
      "Hf3Si": 4566,
      "Ga3Sn": 4567,
      "Rh3Pb": 4568,
      "Zr4Bi3": 4569,
      "Zr4Sb3": 4570,
      "V3Cu4": 4571,
      "Fe4Os4": 4572,
      "Fe4Cu6": 4573,
      "Mg4Nb4Cd4": 4574,
      "Ba4Co3": 4575,
      "Na4Fe4Si4": 4576,
      "Sb4Os4": 4577,
      "In4Mo4": 4578,
      "In4As4": 4579,
      "H2O5": 4580,
      "Zn4Mo6": 4581,
      "TlInPb": 4582,
      "SrMo1": 4583,
      "arsine": 4584,
      "Cr6Pd3": 4585,
      "Si5Ir3": 4586,
      "Mn5Rh3": 4587,
      "TlTl12": 4588,
      "csvtmp": 4589,
      "Zn5Mo5": 4590,
      "Ta4Tl4Pb4": 4591,
      "K4Pd4W4": 4592,
      "Mg4Ta4Sn4": 4593,
      "Li4Nb4In4": 4594,
      "La4Mo4Os4": 4595,
      "Ba4Re4Ag4": 4596,
      "Cd4Sn4Mo4": 4597,
      "mgcu": 4598,
      "Sn4Hg4W4": 4599,
      "cgcsvtmp": 4600,
      "fwcgcsvtmp": 4601,
      "iuhfwcgcsvtmp": 4602,
      "kupfer": 4603,
      "raphite": 4604,
      "Ca4Ti4Pt4": 4605,
      "Sb4Os4Ru4": 4606,
      "In4Mo4W4": 4607,
      "In4As4Pd4": 4608,
      "iuhfwcgcsvtmpg": 4609,
      "K5": 4610,
      "KCa3": 4611,
      "OCl": 4612,
      "O24": 4613,
      "OF2": 4614,
      "PHg": 4615,
      "PO2": 4616,
      "PP12": 4617,
      "SO2": 4618,
      "VV6": 4619,
      "WRh2": 4620,
      "YTa3": 4621,
      "ns": 4622,
      "methan": 4623,
      "In12": 4624,
      "AlBi3": 4625,
      "terbium": 4626,
      "MgZr3": 4627,
      "TiN": 4628,
      "FeAl2": 4629,
      "NbNb6": 4630,
      "LaLa": 4631,
      "LaRh2": 4632,
      "LaPb3": 4633,
      "TaW3": 4634,
      "SnO3": 4635,
      "SnTe3": 4636,
      "LiTi4": 4637,
      "LiSrBe": 4638,
      "MnPb3": 4639,
      "RhC": 4640,
      "MoIr2": 4641,
      "NaK": 4642,
      "ReRh2": 4643,
      "CrZr": 4644,
      "Si7": 4645,
      "BeS": 4646,
      "Sb7": 4647,
      "GeS": 4648,
      "1218": 4649,
      "odymium": 4650,
      "000": 4651,
      "Gd4": 4652,
      "O3Cl": 4653,
      "Pt2Si": 4654,
      "Pt2As": 4655,
      "Co2In": 4656,
      "Ba3Zr": 4657,
      "Sr3La": 4658,
      "Ca3Ga": 4659,
      "Na3Sc": 4660,
      "Y3In": 4661,
      "Al3Sb": 4662,
      "Al3Te": 4663,
      "Zn3Cl": 4664,
      "Sr4Cu3": 4665,
      "Ge3Te": 4666,
      "Te3Se": 4667,
      "Ta3Cd": 4668,
      "Nb3Ag": 4669,
      "Nb3V5": 4670,
      "Zr4W3": 4671,
      "Fe4Co6": 4672,
      "Mg4Tc3": 4673,
      "Mg4Sn4Ir4": 4674,
      "Hf4Te3": 4675,
      "V4Te3": 4676,
      "Mn4B3": 4677,
      "Mg5Ir3": 4678,
      "HgCdSn": 4679,
      "P6Os5": 4680,
      "Be6Pd3": 4681,
      "Co6Ni4": 4682,
      "hydrofluoride": 4683,
      "Cr5Pd4": 4684,
      "boranylidynescandium": 4685,
      "gallanylidynealumane": 4686,
      "K4Nb4Fe4": 4687,
      "ns000": 4688,
      "394": 4689,
      "890": 4690,
      "8Pu4": 4691,
      "Ar": 4692,
      "CO2": 4693,
      "Kh": 4694,
      "KNaCa": 4695,
      "VN": 4696,
      "VTc3": 4697,
      "WNi3": 4698,
      "marium": 4699,
      "rkite": 4700,
      "yrkite": 4701,
      "AlSr": 4702,
      "MgPb3": 4703,
      "MgZn3": 4704,
      "MgLaHf": 4705,
      "CoBr3": 4706,
      "CoCo4": 4707,
      "ZrO3": 4708,
      "CuFe2": 4709,
      "CuO4": 4710,
      "Ti7": 4711,
      "TiTc2": 4712,
      "Ni7": 4713,
      "La10": 4714,
      "TaMo3": 4715,
      "Sn5": 4716,
      "rop": 4717,
      "Pd8": 4718,
      "CaPr": 4719,
      "LiRe2": 4720,
      "SrTi3": 4721,
      "MnIr2": 4722,
      "AuLa4": 4723,
      "AuY4": 4724,
      "BaTi3": 4725,
      "BaYTi": 4726,
      "BiCo": 4727,
      "BiAu3": 4728,
      "Mo7": 4729,
      "MoC5": 4730,
      "NaTc3": 4731,
      "ZnSe2": 4732,
      "RuCo2": 4733,
      "OsBa4": 4734,
      "CrMn2": 4735,
      "BeRe2": 4736,
      "TeO3": 4737,
      "SeS": 4738,
      "SeO3": 4739,
      "AsO": 4740,
      "AsHg": 4741,
      "AsO3": 4742,
      "atyrkite": 4743,
      "CsCa": 4744,
      "Nd4": 4745,
      "Lu3": 4746,
      "Eu4": 4747,
      "EuO3": 4748,
      "Pr8": 4749,
      "AcHo": 4750,
      "nineteen": 4751,
      "O3Br": 4752,
      "samarium": 4753,
      "Pd2P": 4754,
      "Co2Hg": 4755,
      "Co2Ga": 4756,
      "Ba3Pd": 4757,
      "Ba3Mn": 4758,
      "Ba3BP": 4759,
      "K3Sr": 4760,
      "Re2Os5": 4761,
      "Sr3Ta": 4762,
      "Sr3Pb": 4763,
      "Sr3Zn": 4764,
      "La4Hf3": 4765,
      "Bi3Pb": 4766,
      "La3Al": 4767,
      "La3Zn": 4768,
      "Y3Sb": 4769,
      "Sn3Ge": 4770,
      "Al3Si": 4771,
      "Fe3Ag": 4772,
      "Fe3Ag3": 4773,
      "Fe3Cu5": 4774,
      "Ca4Be3": 4775,
      "Hf3Sn": 4776,
      "In3Br": 4777,
      "Zr3Sn": 4778,
      "ylide": 4779,
      "Sb3Te": 4780,
      "Zr4Pb3": 4781,
      "Zr4Ge3": 4782,
      "Be3Au": 4783,
      "Fe4Mo4": 4784,
      "boranylidynerhenium": 4785,
      "Mg4Co": 4786,
      "Ta4In3": 4787,
      "Tc4B4": 4788,
      "Be4Tc5": 4789,
      "PbSnBi": 4790,
      "Li6W2": 4791,
      "Ti5Pd3": 4792,
      "Ti5Co4": 4793,
      "tellanyl": 4794,
      "silylalumane": 4795,
      "cuprous": 4796,
      "trioxirane": 4797,
      "89088": 4798,
      "Khatyrkite": 4799,
      "BB6": 4800,
      "KTi3": 4801,
      "KHfZr": 4802,
      "KLaTa": 4803,
      "PO": 4804,
      "V9": 4805,
      "VAs": 4806,
      "YY": 4807,
      "YSi2": 4808,
      "YMn4": 4809,
      "wol": 4810,
      "tell": 4811,
      "silan": 4812,
      "InK3": 4813,
      "AlHg": 4814,
      "AlNa3": 4815,
      "MgV3": 4816,
      "MgSc4": 4817,
      "MgO6": 4818,
      "CuSe2": 4819,
      "TiS": 4820,
      "TiFe2": 4821,
      "TiNb3": 4822,
      "TiV3": 4823,
      "FeBi2": 4824,
      "HfTi3": 4825,
      "LaHf3": 4826,
      "SnSn12": 4827,
      "CaLi": 4828,
      "CaLa3": 4829,
      "LiGe": 4830,
      "LiY3": 4831,
      "LiYZr": 4832,
      "AgIn2": 4833,
      "PbHf1": 4834,
      "MnSr": 4835,
      "BaZr3": 4836,
      "BaBa4": 4837,
      "BaCr3": 4838,
      "BaEr2": 4839,
      "NaBr": 4840,
      "NaRh2": 4841,
      "NaMg4": 4842,
      "RuSr4": 4843,
      "IrC": 4844,
      "IrY": 4845,
      "IrBr3": 4846,
      "ReIn3": 4847,
      "ReOs3": 4848,
      "GaGa6": 4849,
      "SiSn": 4850,
      "SiO2": 4851,
      "SbSb6": 4852,
      "TeLi": 4853,
      "Cl7": 4854,
      "cute": 4855,
      "P1Y": 4856,
      "CsK": 4857,
      "CsMg": 4858,
      "CeO3": 4859,
      "Dy4": 4860,
      "Th12": 4861,
      "Pm4": 4862,
      "Tb2": 4863,
      "Ba2U": 4864,
      "Zr2Ni": 4865,
      "Pd2Se": 4866,
      "Pt2Ni": 4867,
      "Pt2Pd": 4868,
      "Co2Au": 4869,
      "Sr3Mo": 4870,
      "La4Si3": 4871,
      "La4Be3": 4872,
      "Ca3Cd": 4873,
      "Pb3Au": 4874,
      "fram": 4875,
      "Y4Mo3": 4876,
      "Na3Ta4": 4877,
      "Bi3Te": 4878,
      "Y3B": 4879,
      "Zn3Si": 4880,
      "Ni3Co1": 4881,
      "Hf3Pt": 4882,
      "Hf3Ge": 4883,
      "Sr4Be3": 4884,
      "Zr3Br": 4885,
      "Ta3Ir": 4886,
      "Nb3Ni": 4887,
      "Nb3Re": 4888,
      "Sb3Br": 4889,
      "Zr4Se3": 4890,
      "Zr4Hg3": 4891,
      "Zr4Tl3": 4892,
      "V3Pb": 4893,
      "V3As4": 4894,
      "W3Bi": 4895,
      "Ba4B3": 4896,
      "Na4Au3": 4897,
      "Sc4Mo3": 4898,
      "Ti4Fe6": 4899,
      "Al4Tc6": 4900,
      "Re4Pb3": 4901,
      "B4Ir5": 4902,
      "Ga4Te": 4903,
      "Be4Ni3": 4904,
      "C3H": 4905,
      "TlIn1": 4906,
      "N3H": 4907,
      "Mg5Tc5": 4908,
      "Ni6Pd": 4909,
      "Re6Os4": 4910,
      "Co5Ni5": 4911,
      "Al5Fe2": 4912,
      "Al5Fe6": 4913,
      "CaCa5": 4914,
      "V5Cu6": 4915,
      "B6Ir2": 4916,
      "2H2O2": 4917,
      "arsanylidynevanadium": 4918,
      "arsanylidyneiron": 4919,
      "nenickel": 4920,
      "boranylidyneyttrium": 4921,
      "P5Os2": 4922,
      "anylidynenickel": 4923,
      "12506": 4924,
      "methanol": 4925,
      "wolfram": 4926,
      "675": 4927,
      "NCe6": 4928,
      "OMg6": 4929,
      "P7": 4930,
      "WFe2": 4931,
      "WO6": 4932,
      "YCu2": 4933,
      "YHg3": 4934,
      "YV3": 4935,
      "has": 4936,
      "isi": 4937,
      "orhenium": 4938,
      "AlAl": 4939,
      "MgSi2": 4940,
      "MgRh2": 4941,
      "MgLa3": 4942,
      "CoTe3": 4943,
      "ZrSi3": 4944,
      "ZrTc3": 4945,
      "CuO": 4946,
      "TiO2": 4947,
      "TiMo3": 4948,
      "TiNb4": 4949,
      "TiWMo": 4950,
      "FePt3": 4951,
      "HfTaNb": 4952,
      "Ni9": 4953,
      "NiAl2": 4954,
      "LaMn3": 4955,
      "LaCl3": 4956,
      "TaSe3": 4957,
      "SnNa3": 4958,
      "PdK4": 4959,
      "CaHo": 4960,
      "ScP3": 4961,
      "ScHf3": 4962,
      "LiH": 4963,
      "LiTm": 4964,
      "LiMg3": 4965,
      "PbLi3": 4966,
      "PbNa3": 4967,
      "PbPb4": 4968,
      "CdC": 4969,
      "CdPb3": 4970,
      "SrZn3": 4971,
      "SrCd3": 4972,
      "MnFe2": 4973,
      "MnRu2": 4974,
      "AuO3": 4975,
      "RhBr3": 4976,
      "BaW3": 4977,
      "BaNbV": 4978,
      "BaLaHf": 4979,
      "Bi5": 4980,
      "BiF": 4981,
      "BiZr": 4982,
      "BiAs3": 4983,
      "MoNa": 4984,
      "MoRe2": 4985,
      "NaIr2": 4986,
      "NaBaCa": 4987,
      "NaBaMg": 4988,
      "Tl5": 4989,
      "TlHg": 4990,
      "IrSb3": 4991,
      "TcPb4": 4992,
      "Hg5": 4993,
      "HgHg6": 4994,
      "ReRe": 4995,
      "ReAg3": 4996,
      "CrO": 4997,
      "SiGe": 4998,
      "GeLa4": 4999,
      "SeSe12": 5000,
      "AsAs12": 5001,
      "ido": 5002,
      "nerhodium": 5003,
      "RbK": 5004,
      "RbLi": 5005,
      "RbMg2": 5006,
      "CeSe2": 5007,
      "SmO3": 5008,
      "Ho12": 5009,
      "HoGd2": 5010,
      "Lu4": 5011,
      "Li2Cr6": 5012,
      "Na2Ho": 5013,
      "P2O5": 5014,
      "Co2Si": 5015,
      "Co2Se": 5016,
      "Ba3Y": 5017,
      "Ba3Sc": 5018,
      "Ba3Cl": 5019,
      "O2Cl": 5020,
      "Sr3Zr": 5021,
      "Sr3Bi": 5022,
      "Sr3Ga": 5023,
      "Sr3Te": 5024,
      "Sr3Br": 5025,
      "Ca3Au": 5026,
      "Ca3Ge": 5027,
      "Au3Hg": 5028,
      "Li3Bi": 5029,
      "hypo": 5030,
      "K4B3": 5031,
      "Y3Fe": 5032,
      "Al3Tc5": 5033,
      "Ca4Cl3": 5034,
      "Ca4Mg4": 5035,
      "P3Te": 5036,
      "Zn3B4": 5037,
      "Cu3Bi": 5038,
      "Hg3Sb": 5039,
      "Hf3Cd": 5040,
      "Hf3Bi": 5041,
      "Hf3Te": 5042,
      "Cd3As": 5043,
      "Zr3Tl": 5044,
      "Zr3Nb2": 5045,
      "Ti3Pb4": 5046,
      "Si3Se": 5047,
      "Sc3Sn": 5048,
      "Tl3Te": 5049,
      "Tl3Br": 5050,
      "Fe4Ge3": 5051,
      "Na4Hg3": 5052,
      "Na4Ga3": 5053,
      "Hf4Au3": 5054,
      "Hf4Al3": 5055,
      "Nb4V6": 5056,
      "Ti4In3": 5057,
      "Cd4Ge": 5058,
      "Ta4Zn3": 5059,
      "Te4Br": 5060,
      "Ni4Tl": 5061,
      "Co4Cu4": 5062,
      "Al4Bi": 5063,
      "Ge4Sb4": 5064,
      "NaSr1": 5065,
      "N3I": 5066,
      "germanylidene": 5067,
      "Fe6Ag4": 5068,
      "Ni5Ir2": 5069,
      "selanylideneniobium": 5070,
      "KTi1": 5071,
      "V6Pd5": 5072,
      "SrSr6": 5073,
      "Be6Tc3": 5074,
      "Be6Al5": 5075,
      "Li5W5": 5076,
      "Be5Al2": 5077,
      "tellanylide": 5078,
      "phosphanylidynemanganese": 5079,
      "silylnickel": 5080,
      "mfcd0": 5081,
      "12133": 5082,
      "Ta8Tl4Ni2": 5083,
      "Nb4Cd4Pb4": 5084,
      "fesi": 5085,
      "11145": 5086,
      "telloy": 5087,
      "silanide": 5088,
      "67555": 5089,
      "hastelloy": 5090,
      "Ca4Mg4Cr4": 5091,
      "tellanylidenerhodium": 5092,
      "BSe3": 5093,
      "CI": 5094,
      "CAs": 5095,
      "CH2": 5096,
      "Disi": 5097,
      "KAu3": 5098,
      "KMg4": 5099,
      "KYZr": 5100,
      "KLaV": 5101,
      "NS": 5102,
      "PO5": 5103,
      "WLa": 5104,
      "Wur": 5105,
      "YN": 5106,
      "YW3": 5107,
      "YCo4": 5108,
      "pra": 5109,
      "plutonium": 5110,
      "tz": 5111,
      "anyliden": 5112,
      "alde": 5113,
      "InO3": 5114,
      "InP6": 5115,
      "Mg9": 5116,
      "MgCu2": 5117,
      "MgO2": 5118,
      "MgLaV": 5119,
      "Co9": 5120,
      "CoC2": 5121,
      "ZrHg3": 5122,
      "ZrW3": 5123,
      "ZrNbMo": 5124,
      "CuK3": 5125,
      "TiAl2": 5126,
      "Titanium": 5127,
      "FeIr2": 5128,
      "HfOs3": 5129,
      "Ni8": 5130,
      "NbPb3": 5131,
      "NbIn3": 5132,
      "LaO": 5133,
      "LaNbW": 5134,
      "LaLa6": 5135,
      "TaCr3": 5136,
      "SnCa3": 5137,
      "CaSc3": 5138,
      "CaLaTi": 5139,
      "LiRe4": 5140,
      "Pt8": 5141,
      "PtK4": 5142,
      "PtSr4": 5143,
      "AgCu2": 5144,
      "AgCu3": 5145,
      "PbLi": 5146,
      "PbK3": 5147,
      "CdNa3": 5148,
      "SrV4": 5149,
      "MnC": 5150,
      "AuAl3": 5151,
      "AuCa4": 5152,
      "RhSr4": 5153,
      "BaTe": 5154,
      "BaLu": 5155,
      "BaTa3": 5156,
      "BaYHf": 5157,
      "BaLaTi": 5158,
      "BiTa": 5159,
      "BiSr3": 5160,
      "NaBaBe": 5161,
      "TlBi3": 5162,
      "RuRu6": 5163,
      "IrO": 5164,
      "IrRh2": 5165,
      "IrCd3": 5166,
      "Tc7": 5167,
      "TcFe2": 5168,
      "CrCl3": 5169,
      "SiLa4": 5170,
      "BeAu3": 5171,
      "SbSb12": 5172,
      "TeLi3": 5173,
      "TeBr3": 5174,
      "GeV": 5175,
      "BrNa3": 5176,
      "234": 5177,
      "CsNp2": 5178,
      "CeSe": 5179,
      "Dy6": 5180,
      "Nd12": 5181,
      "LuHo": 5182,
      "LuTb": 5183,
      "ThCe": 5184,
      "12019": 5185,
      "Pr12": 5186,
      "TbSm": 5187,
      "Li2Mn3": 5188,
      "Cu2Zr": 5189,
      "Cu2AlSi": 5190,
      "Pt2B": 5191,
      "oxo": 5192,
      "Co2Te": 5193,
      "Ba3Nb": 5194,
      "Ba3Ta": 5195,
      "Ba3Ca": 5196,
      "elead": 5197,
      "K3Si": 5198,
      "K3Te": 5199,
      "Sr3Al": 5200,
      "Sr3Cl": 5201,
      "La4As3": 5202,
      "Ca3P": 5203,
      "Ca3Hf": 5204,
      "Ca3Rh": 5205,
      "hyde": 5206,
      "La3Te": 5207,
      "La3Br": 5208,
      "Y3P": 5209,
      "Y3Hg": 5210,
      "Mg3Sb": 5211,
      "Zn3Se": 5212,
      "Ag3Br": 5213,
      "Ni3Zr": 5214,
      "Rh3Br4": 5215,
      "Ge3S": 5216,
      "Zr3Ni": 5217,
      "Ti3Fe3": 5218,
      "Te3Br": 5219,
      "Sn4Te": 5220,
      "Nb3Au4": 5221,
      "B3W4": 5222,
      "Fe4B3": 5223,
      "Fe4Cu4": 5224,
      "nib": 5225,
      "Ba4Cr3": 5226,
      "Na4Cu3": 5227,
      "Hf4P3": 5228,
      "Hf4Ag3": 5229,
      "Sc4Ag3": 5230,
      "Sc4In3": 5231,
      "In4Sn": 5232,
      "Ta4Tl3": 5233,
      "V4Pd6": 5234,
      "Cr4Ga3": 5235,
      "Be4B8": 5236,
      "C3NH2": 5237,
      "H3I": 5238,
      "TlInGa": 5239,
      "LaSc1": 5240,
      "HgInBi": 5241,
      "S3F": 5242,
      "Li6Cr3": 5243,
      "Li6Ga5": 5244,
      "V6Ga3": 5245,
      "Mn6Rh3": 5246,
      "selanylidenevanadium": 5247,
      "selanylidenezinc": 5248,
      "selanylidenestrontium": 5249,
      "chlorophosphor": 5250,
      "BaBa5": 5251,
      "KK5": 5252,
      "NaNa5": 5253,
      "phosphanylidynegermanium": 5254,
      "phosphanylidynesilicon": 5255,
      "Si6Ir4": 5256,
      "BaPb1": 5257,
      "NaSr3Al": 5258,
      "12054": 5259,
      "bismuthanylidyneiron": 5260,
      "fluorine": 5261,
      "106712": 5262,
      "Disilicide": 5263,
      "Wurtz": 5264,
      "anylidenelead": 5265,
      "aldehyde": 5266,
      "chlorophosphorane": 5267,
      "Wurtzite": 5268,
      "0Cu": 5269,
      "2Ag": 5270,
      "214": 5271,
      "BO2": 5272,
      "CBr": 5273,
      "H10": 5274,
      "HO3": 5275,
      "IF3": 5276,
      "K7": 5277,
      "KBi3": 5278,
      "KTaNb": 5279,
      "KCl4": 5280,
      "KSrBe": 5281,
      "KNaLi": 5282,
      "O23": 5283,
      "SBe4": 5284,
      "VCr2": 5285,
      "VFe3": 5286,
      "YBi3": 5287,
      "YIrCo": 5288,
      "tite": 5289,
      "wder": 5290,
      "indi": 5291,
      "InBi3": 5292,
      "MgPu": 5293,
      "MgNi3": 5294,
      "MgMn3": 5295,
      "MgZrTa": 5296,
      "CoSi2": 5297,
      "CuAl2": 5298,
      "CuS2": 5299,
      "FeF": 5300,
      "FeCo3": 5301,
      "HfZr3": 5302,
      "HfWMo": 5303,
      "NiC": 5304,
      "NbO": 5305,
      "NbNi3": 5306,
      "LaAu3": 5307,
      "LaCu3": 5308,
      "LaHfTi": 5309,
      "TaRh2": 5310,
      "TaZn3": 5311,
      "SnS": 5312,
      "SnPb": 5313,
      "SnSn6": 5314,
      "Pd7": 5315,
      "PdN": 5316,
      "Ca9": 5317,
      "CaO": 5318,
      "CaV3": 5319,
      "CaZrV": 5320,
      "CaYV": 5321,
      "ScTi3": 5322,
      "LiF": 5323,
      "LiMn3": 5324,
      "LiMg4": 5325,
      "LiYTa": 5326,
      "PtO3": 5327,
      "Ag7": 5328,
      "AgSe3": 5329,
      "AgTe4": 5330,
      "AgCl4": 5331,
      "CdHg3": 5332,
      "CdGa3": 5333,
      "SrC": 5334,
      "SrBa": 5335,
      "SrTe": 5336,
      "SrAu3": 5337,
      "SrPd3": 5338,
      "SrHf3": 5339,
      "SrGa3": 5340,
      "SrSr4": 5341,
      "SrMo3": 5342,
      "SrTc3": 5343,
      "BaO": 5344,
      "BaMn3": 5345,
      "BaVMn": 5346,
      "BiSi": 5347,
      "BiSb3": 5348,
      "BiBr4": 5349,
      "Tl12": 5350,
      "IrO2": 5351,
      "IrLa4": 5352,
      "TcP": 5353,
      "TcO3": 5354,
      "TcAg3": 5355,
      "HgBa": 5356,
      "Hg12": 5357,
      "ReIr2": 5358,
      "CrBi3": 5359,
      "CrRh3": 5360,
      "SiS": 5361,
      "SiBr3": 5362,
      "BeLaHf": 5363,
      "BeS4": 5364,
      "SbO": 5365,
      "SbCl3": 5366,
      "Ge5": 5367,
      "108": 5368,
      "AsPb": 5369,
      "idane": 5370,
      "900": 5371,
      "22214": 5372,
      "RbPt": 5373,
      "RbNa": 5374,
      "8955": 5375,
      "0622214": 5376,
      "CeN": 5377,
      "CeN6": 5378,
      "ErSm2": 5379,
      "ErNd2": 5380,
      "SmPt": 5381,
      "SmSi": 5382,
      "DyO3": 5383,
      "NdO3": 5384,
      "NpEu2": 5385,
      "LuO3": 5386,
      "AcLu2": 5387,
      "O3I": 5388,
      "Ba2Y": 5389,
      "Mg2Sr": 5390,
      "K2Bi2": 5391,
      "Ti2Al": 5392,
      "Ti2Mo": 5393,
      "Co2Al": 5394,
      "B2C": 5395,
      "Ba3Ir": 5396,
      "Ba3As": 5397,
      "K3Fe": 5398,
      "K3Ir": 5399,
      "K3SrNi": 5400,
      "Sr3P": 5401,
      "La4Rh3": 5402,
      "La4Tc3": 5403,
      "Ca3In": 5404,
      "Au3Cd": 5405,
      "Au3Br": 5406,
      "Y4Ge3": 5407,
      "Y4Au4": 5408,
      "Li3Co": 5409,
      "Na3Te": 5410,
      "Bi3Br": 5411,
      "La3Sn": 5412,
      "La3Cl": 5413,
      "K4La6": 5414,
      "Mg3Te": 5415,
      "Mg3Zr4": 5416,
      "Mg3Si4": 5417,
      "Sn3Hg": 5418,
      "Al3Se": 5419,
      "Ca4Fe3": 5420,
      "Cu3Pb": 5421,
      "Ga3Ge": 5422,
      "Cd3In": 5423,
      "Cd3Sb": 5424,
      "Cd3Sb4": 5425,
      "Mn3Pb": 5426,
      "Mn3Ir": 5427,
      "Zr3Cu": 5428,
      "Ti3In": 5429,
      "Ti3Cr": 5430,
      "Sn4Se3": 5431,
      "Nb3Te4": 5432,
      "Sc3Ga": 5433,
      "As3Br": 5434,
      "Tl3Pb": 5435,
      "Tl3Si": 5436,
      "Fe4Cd": 5437,
      "Fe4Co4": 5438,
      "boran": 5439,
      "Ba4Rh3": 5440,
      "Ba4Sc3": 5441,
      "Ba4Tc3": 5442,
      "hydroselenide": 5443,
      "Hf4Ta3": 5444,
      "Sc4Hg3": 5445,
      "Re3Tc3": 5446,
      "Br4Cl": 5447,
      "P4Ir4": 5448,
      "Al4Te": 5449,
      "germyllithium": 5450,
      "AgCdPb": 5451,
      "TlInSn": 5452,
      "Gd2Nd": 5453,
      "rubidium": 5454,
      "GaPbBi": 5455,
      "PdCdIn": 5456,
      "Er2Ho": 5457,
      "AgHgSn": 5458,
      "FeIrBi": 5459,
      "Mg5Co": 5460,
      "Th2Dy": 5461,
      "hydrio": 5462,
      "NH6": 5463,
      "selanylidenemagnesium": 5464,
      "Li5Mn5": 5465,
      "chlorosilicon": 5466,
      "MgCuSe": 5467,
      "LaAlO3": 5468,
      "phosphanylidynescandium": 5469,
      "stannyl": 5470,
      "U4Sn3": 5471,
      "U4Pt3": 5472,
      "stibanylidyneiron": 5473,
      "stibanylidynemanganese": 5474,
      "trioxidane": 5475,
      "powder": 5476,
      "Fe3Mo4Os8": 5477,
      "bismuthanylidynecobalt": 5478,
      "hydroxyperoxide": 5479,
      "anylpotassium": 5480,
      "89559": 5481,
      "K2Bi2Os8": 5482,
      "hydriodic": 5483,
      "550": 5484,
      "Bro": 5485,
      "BZn3": 5486,
      "CTe": 5487,
      "H9": 5488,
      "HS": 5489,
      "HO5": 5490,
      "KYb": 5491,
      "KZn3": 5492,
      "KScHf": 5493,
      "KBaSr": 5494,
      "KLiMg": 5495,
      "KVW": 5496,
      "Mi": 5497,
      "O19": 5498,
      "PCl3": 5499,
      "S12": 5500,
      "VPb3": 5501,
      "W7": 5502,
      "YPd3": 5503,
      "YSe3": 5504,
      "YMn3": 5505,
      "aup": 5506,
      "bre": 5507,
      "eu": 5508,
      "ga": 5509,
      "graphite": 5510,
      "ko": 5511,
      "llerite": 5512,
      "mnsi": 5513,
      "okite": 5514,
      "ycl": 5515,
      "anium": 5516,
      "In1": 5517,
      "InC": 5518,
      "InAu3": 5519,
      "InPb3": 5520,
      "InSn3": 5521,
      "InBr3": 5522,
      "InIn4": 5523,
      "AlPb3": 5524,
      "seodymium": 5525,
      "MgY3": 5526,
      "MgOs3": 5527,
      "MgRe4": 5528,
      "ZrC": 5529,
      "ZrZr": 5530,
      "ZrCu3": 5531,
      "ZrTi3": 5532,
      "TiSi2": 5533,
      "TiPd2": 5534,
      "TiMn3": 5535,
      "TiTc3": 5536,
      "FeCl3": 5537,
      "FeCu4": 5538,
      "NiC2": 5539,
      "NbNb": 5540,
      "NbO3": 5541,
      "NbZn3": 5542,
      "LaLa4": 5543,
      "LaPd3": 5544,
      "LaZn3": 5545,
      "LaBr3": 5546,
      "LaRe3": 5547,
      "LaCo4": 5548,
      "LaCr4": 5549,
      "LaWMo": 5550,
      "TaK3": 5551,
      "TaMn3": 5552,
      "TaNb3": 5553,
      "TaMn4": 5554,
      "SnSe3": 5555,
      "rovanadium": 5556,
      "CaNd": 5557,
      "CaTaNb": 5558,
      "CaTaV": 5559,
      "ScZr3": 5560,
      "ScOs3": 5561,
      "ScSc4": 5562,
      "ScNbW": 5563,
      "ScTiTa": 5564,
      "LiOs2": 5565,
      "LiScZr": 5566,
      "Pt1": 5567,
      "PbC": 5568,
      "PbY3": 5569,
      "PbSi3": 5570,
      "SrTl3": 5571,
      "SrYSc": 5572,
      "SrLaTa": 5573,
      "MnIn3": 5574,
      "MnMn4": 5575,
      "RhGe3": 5576,
      "BaNa3": 5577,
      "BaPt3": 5578,
      "BaAs3": 5579,
      "BaNb4": 5580,
      "BaRe3": 5581,
      "BaScTa": 5582,
      "BaScZr": 5583,
      "BaHfOs": 5584,
      "BiK3": 5585,
      "BiLi3": 5586,
      "MoMn2": 5587,
      "MoC2": 5588,
      "NaPd3": 5589,
      "NaLa3": 5590,
      "NaSe3": 5591,
      "NaMg3": 5592,
      "NaSc3": 5593,
      "NaBe3": 5594,
      "NaRu4": 5595,
      "NaYHf": 5596,
      "NaHfTi": 5597,
      "NaHfMo": 5598,
      "TlSr": 5599,
      "RuRh2": 5600,
      "RuGa3": 5601,
      "IrCu3": 5602,
      "TcRh2": 5603,
      "HgZn3": 5604,
      "OsSe3": 5605,
      "ReCo3": 5606,
      "ReRu3": 5607,
      "CrTc3": 5608,
      "CrRu3": 5609,
      "Ga7": 5610,
      "GaBi3": 5611,
      "SiAs3": 5612,
      "BeBi4": 5613,
      "BeBa4": 5614,
      "BeTi4": 5615,
      "BeHfZr": 5616,
      "SbN": 5617,
      "SbLi": 5618,
      "ClAg4": 5619,
      "monohydrate": 5620,
      "1200": 5621,
      "ithaup": 5622,
      "1320": 5623,
      "RbPd": 5624,
      "RbSb": 5625,
      "ErSm": 5626,
      "SmCu": 5627,
      "DyCe2": 5628,
      "GdSm": 5629,
      "TmGd": 5630,
      "Pm12": 5631,
      "Ba2Gd": 5632,
      "Mg2Tc": 5633,
      "Mg2Si": 5634,
      "Mg2Y2": 5635,
      "Si2O5": 5636,
      "Fe2Sn": 5637,
      "V2Ni": 5638,
      "Ta2Tc": 5639,
      "Fmm2": 5640,
      "Ba3Re": 5641,
      "Ba3Te": 5642,
      "K3Sb": 5643,
      "Sr3Pd": 5644,
      "Sr3Ag": 5645,
      "Sr3Re": 5646,
      "La4Al3": 5647,
      "La4Fe3": 5648,
      "La4Ta3": 5649,
      "Ca3As": 5650,
      "Na3Mn4": 5651,
      "La3Cu": 5652,
      "La3Sb": 5653,
      "K4Cu3": 5654,
      "K4Rh3": 5655,
      "K4Cu4": 5656,
      "Y3Ni": 5657,
      "Y3Si": 5658,
      "Fe3Cu": 5659,
      "Ca4Ir3": 5660,
      "P3O10": 5661,
      "Hf3Pd": 5662,
      "Hf3Rh": 5663,
      "Hf3Ir": 5664,
      "Ga3Bi4": 5665,
      "Rh3Te": 5666,
      "Mn3Pt": 5667,
      "Zr3Te": 5668,
      "Si3As": 5669,
      "Si3Cl": 5670,
      "Sc3Si": 5671,
      "Sc3As": 5672,
      "Co3Pd": 5673,
      "B3P": 5674,
      "V3Pd4": 5675,
      "Be3V4": 5676,
      "Bi4Ir3": 5677,
      "Bi4Os3": 5678,
      "Mg4Zn": 5679,
      "Na4Al3": 5680,
      "Na4Sb4": 5681,
      "Tc3Ni3": 5682,
      "In4Se": 5683,
      "Cd4Mo3": 5684,
      "Ta4Sn3": 5685,
      "Tl4Sn": 5686,
      "Tl4Ga3": 5687,
      "Li4Fe3": 5688,
      "Mn4Pb3": 5689,
      "Te4Cl": 5690,
      "Hg4B": 5691,
      "Hg4Sb3": 5692,
      "Be4Pd5": 5693,
      "bismuthane": 5694,
      "InAlPb": 5695,
      "HgZnPb": 5696,
      "AuCdBi": 5697,
      "Er2Tb": 5698,
      "AuInPb": 5699,
      "chlorine": 5700,
      "ytterbium": 5701,
      "CdZnPb": 5702,
      "AlPbBi": 5703,
      "ZnInGa": 5704,
      "S3Cl": 5705,
      "Ho2Nd": 5706,
      "U2Ce": 5707,
      "Eu2Pm": 5708,
      "alloy": 5709,
      "CoInBi": 5710,
      "Nb6In2": 5711,
      "selanyllithium": 5712,
      "selanylidenecopper": 5713,
      "OF4": 5714,
      "N4O2": 5715,
      "tellanylideneniobium": 5716,
      "ferrovanadium": 5717,
      "tetraboride": 5718,
      "stibanylidyneyttrium": 5719,
      "methylidynetitanium": 5720,
      "fep": 5721,
      "37227": 5722,
      "mfcd01320": 5723,
      "praseodymium": 5724,
      "stannylborane": 5725,
      "Brookite": 5726,
      "Millerite": 5727,
      "breithaup": 5728,
      "kobalt": 5729,
      "yclo": 5730,
      "mfcd01320550": 5731,
      "breithauptite": 5732,
      "2AlSi": 5733,
      "2AlGe": 5734,
      "8Ho4": 5735,
      "BP2": 5736,
      "CHg": 5737,
      "CTh4": 5738,
      "KTi4": 5739,
      "KLi4": 5740,
      "KNaSr": 5741,
      "KCaSc": 5742,
      "KZrTa": 5743,
      "KWRe": 5744,
      "KYTa": 5745,
      "PN": 5746,
      "PRe": 5747,
      "PK1": 5748,
      "SBr": 5749,
      "URu": 5750,
      "V8": 5751,
      "VK1": 5752,
      "WW6": 5753,
      "YRu3": 5754,
      "YTi4": 5755,
      "YNbOs": 5756,
      "YNbRu": 5757,
      "crb": 5758,
      "eis": 5759,
      "galli": 5760,
      "tal": 5761,
      "uthenium": 5762,
      "zra": 5763,
      "metal": 5764,
      "ometh": 5765,
      "oruthenium": 5766,
      "InN": 5767,
      "cob": 5768,
      "AlC": 5769,
      "cesium": 5770,
      "MgGa3": 5771,
      "MgTa3": 5772,
      "MgBe3": 5773,
      "MgHfTa": 5774,
      "CoF": 5775,
      "ZrMo3": 5776,
      "ZrW4": 5777,
      "TiO": 5778,
      "TiCu3": 5779,
      "TiCr3": 5780,
      "TiTi4": 5781,
      "TiTi6": 5782,
      "FeN": 5783,
      "FeGe2": 5784,
      "FeTl3": 5785,
      "FeFe4": 5786,
      "HfSe3": 5787,
      "HfZn3": 5788,
      "HfNbMo": 5789,
      "NbCu2": 5790,
      "NbCo2Pb": 5791,
      "LaSe3": 5792,
      "LaOs3": 5793,
      "LaTc3": 5794,
      "LaCr3": 5795,
      "LaW4": 5796,
      "LaTc4": 5797,
      "LaNbRe": 5798,
      "LaFePt": 5799,
      "TaFe3": 5800,
      "TaCo3": 5801,
      "TaTa4": 5802,
      "SnSr3": 5803,
      "Ca7": 5804,
      "CaSm": 5805,
      "CaNbRu": 5806,
      "ScIn2": 5807,
      "ScSn2": 5808,
      "Li7": 5809,
      "LiSi": 5810,
      "LiYb": 5811,
      "LiRh2": 5812,
      "LiTe3": 5813,
      "LiLaSc": 5814,
      "LiLaHf": 5815,
      "LiTm2": 5816,
      "PtPb3": 5817,
      "AgTe2": 5818,
      "AgBr3": 5819,
      "Pb5": 5820,
      "CdO3": 5821,
      "CdAl2": 5822,
      "SrSc3": 5823,
      "SrRu3": 5824,
      "SrHfZr": 5825,
      "SrLaY": 5826,
      "MnSn3": 5827,
      "MnCo3": 5828,
      "MnRu3": 5829,
      "AuCd3": 5830,
      "AuSr4": 5831,
      "AuAu6": 5832,
      "BaRh2": 5833,
      "BaPd3": 5834,
      "BaMo3": 5835,
      "BaIr3": 5836,
      "BaAl4": 5837,
      "BaCr4": 5838,
      "BaWMo": 5839,
      "BaCrMn": 5840,
      "BaNp2": 5841,
      "BaPdNi": 5842,
      "BaSm2": 5843,
      "BaIrRh": 5844,
      "BaTaV": 5845,
      "BaVW": 5846,
      "BaHfMn": 5847,
      "BaYMn": 5848,
      "BiBa3": 5849,
      "Na7": 5850,
      "NaPr": 5851,
      "NaY4": 5852,
      "NaAg3": 5853,
      "NaTa3": 5854,
      "NaLaTa": 5855,
      "NaLaY": 5856,
      "NaLiSr": 5857,
      "NaYTi": 5858,
      "NaBaSr": 5859,
      "NaScZr": 5860,
      "NaLaV": 5861,
      "TlF": 5862,
      "TlK3": 5863,
      "TlHg3": 5864,
      "Zn8": 5865,
      "ZnCo3": 5866,
      "Ru7": 5867,
      "RuO3": 5868,
      "IrSe3": 5869,
      "IrZn3": 5870,
      "IrNi3": 5871,
      "Tc9": 5872,
      "TcPd2": 5873,
      "TcCo3": 5874,
      "HgGa3": 5875,
      "ReCl3": 5876,
      "ReRe6": 5877,
      "CrN": 5878,
      "CrPb2": 5879,
      "GaNa3": 5880,
      "Si12": 5881,
      "SiP3": 5882,
      "SiBi4": 5883,
      "BeC": 5884,
      "Be12": 5885,
      "BeLa4": 5886,
      "BeSn3": 5887,
      "BeYZr": 5888,
      "BePu2": 5889,
      "SbTe3": 5890,
      "SbBr4": 5891,
      "Se5": 5892,
      "AsPb3": 5893,
      "ClK4": 5894,
      "825": 5895,
      "838": 5896,
      "929": 5897,
      "92838": 5898,
      "RbSm": 5899,
      "CsRb": 5900,
      "CeMg": 5901,
      "CeNb2": 5902,
      "Sm12": 5903,
      "DySn": 5904,
      "HoDy2": 5905,
      "Ho8Pu4": 5906,
      "LuDy2": 5907,
      "TmRh": 5908,
      "TmPm": 5909,
      "PuCe2": 5910,
      "ThC": 5911,
      "ThSm": 5912,
      "ThDy2": 5913,
      "ThC4": 5914,
      "PrTa": 5915,
      "YbTm": 5916,
      "YbGd2": 5917,
      "TbO3": 5918,
      "AcEr2": 5919,
      "Ba2Ti": 5920,
      "Zr2Rh": 5921,
      "Sr2Pb": 5922,
      "Mg2Ga": 5923,
      "Mg2Te": 5924,
      "Hf2Zr": 5925,
      "Hf2Tc": 5926,
      "uranium": 5927,
      "Li2O2": 5928,
      "Fe2Mo3": 5929,
      "lars": 5930,
      "Ca2Mg": 5931,
      "W2Si": 5932,
      "phosphanide": 5933,
      "Cr2Si": 5934,
      "Os2Pt": 5935,
      "K3Mg": 5936,
      "K3Li": 5937,
      "K3Pb": 5938,
      "K3Ba": 5939,
      "K3Zr4": 5940,
      "La4Mo3": 5941,
      "Ca3Se": 5942,
      "Y4Au": 5943,
      "Y4Au3": 5944,
      "Y4Ga3": 5945,
      "Y4Zr6": 5946,
      "Y4Zr3Nb2": 5947,
      "Li3Sn": 5948,
      "Li3La2": 5949,
      "Na3Ag": 5950,
      "Na3Y2": 5951,
      "Na3SrAl": 5952,
      "La3Y": 5953,
      "La3Hf": 5954,
      "La3Ni": 5955,
      "La3Os": 5956,
      "K4Os": 5957,
      "K4Zr3": 5958,
      "K4Co3": 5959,
      "K4Ta8": 5960,
      "Se3Sr": 5961,
      "Sn3W4": 5962,
      "Fe3Pt": 5963,
      "Ca4Pd3": 5964,
      "Ca4Ti3": 5965,
      "Ca4As3": 5966,
      "C2N3": 5967,
      "Hg3Te": 5968,
      "Hf3In": 5969,
      "Hf3Tc": 5970,
      "Ga3P": 5971,
      "Ga3Sb": 5972,
      "Cd3Pb": 5973,
      "Cd3Te": 5974,
      "Cd3Pb4": 5975,
      "Sr4Os3": 5976,
      "Ge3As": 5977,
      "Zr3Pd": 5978,
      "Zr3As": 5979,
      "Ti3Sb": 5980,
      "Te3Pb": 5981,
      "Sn4Ge3": 5982,
      "Sn4Pt4": 5983,
      "Nb3Bi4": 5984,
      "Sc3P": 5985,
      "Sb3P": 5986,
      "Sb3W4": 5987,
      "Zr4Si3": 5988,
      "As3Pb": 5989,
      "V3Au": 5990,
      "Tl3Pd": 5991,
      "Tl3Rh": 5992,
      "Tl3Ge4": 5993,
      "O4F": 5994,
      "Ba4Si3": 5995,
      "Na4Sn": 5996,
      "Cr3Bi": 5997,
      "Hf4Pb3": 5998,
      "Hf4In3": 5999,
      "Hf4Cu4": 6000,
      "Sb4Se3": 6001,
      "Sb4Ru4": 6002,
      "Sc4Te3": 6003,
      "Sc4Os4": 6004,
      "Nb4Tl3": 6005,
      "Nb4Ag4": 6006,
      "Ti4Ag3": 6007,
      "Ti4Sb3": 6008,
      "In4Ga": 6009,
      "Cd4Pb": 6010,
      "Tl4W4": 6011,
      "Li4Mn5": 6012,
      "V4Ni3": 6013,
      "Mn4Rh4": 6014,
      "Ni4Zn": 6015,
      "Ni4Sb4": 6016,
      "Ni4Mo6": 6017,
      "Pt4Rh8": 6018,
      "Co4Al": 6019,
      "Ag4Bi3": 6020,
      "Ag4Se3": 6021,
      "Hg4P": 6022,
      "Hg4Zn": 6023,
      "Cr4Si": 6024,
      "ylidynesilane": 6025,
      "B4Pd3": 6026,
      "B4Ir3": 6027,
      "Ga4Bi3": 6028,
      "Be4Ni4": 6029,
      "YZrNb5": 6030,
      "germylidynesilane": 6031,
      "Zn4Pb": 6032,
      "AgCdGa": 6033,
      "InAlBi": 6034,
      "Gd2Pm": 6035,
      "AgZnBi": 6036,
      "PtNiBi": 6037,
      "AgHgBi": 6038,
      "AgInBi": 6039,
      "N3F": 6040,
      "IrNiBi": 6041,
      "PtAgSn": 6042,
      "hydrido": 6043,
      "YW1": 6044,
      "FeInPb": 6045,
      "Ni1Co2": 6046,
      "KW1": 6047,
      "TiAlZr": 6048,
      "arsane": 6049,
      "Co5Pt5": 6050,
      "bromoruthenium": 6051,
      "arsanylidynephosphane": 6052,
      "bromoboran": 6053,
      "Yb4Th8": 6054,
      "Nb5V4": 6055,
      "12518": 6056,
      "CC12": 6057,
      "12058": 6058,
      "AlCuV": 6059,
      "Pu6Ni6": 6060,
      "basis": 6061,
      "pubchem_7135": 6062,
      "Pr8Hf4": 6063,
      "eisen": 6064,
      "gallide": 6065,
      "zras": 6066,
      "metals": 6067,
      "Fe2Mo3Os8": 6068,
      "bromoboranato": 6069,
      "-)": 6070,
      "2Ge": 6071,
      "2SiGa": 6072,
      "606": 6073,
      "B9": 6074,
      "BAu3": 6075,
      "BBi4": 6076,
      "BK1": 6077,
      "CGa": 6078,
      "CTi4": 6079,
      "CNH": 6080,
      "KPt3": 6081,
      "KOs3": 6082,
      "KRe4": 6083,
      "KLaY": 6084,
      "KYTi": 6085,
      "KHfW": 6086,
      "NBr": 6087,
      "OFe4": 6088,
      "PBa4": 6089,
      "PTe4": 6090,
      "USm2": 6091,
      "VBa": 6092,
      "VRh3": 6093,
      "VTe3": 6094,
      "WPd3": 6095,
      "WBr3": 6096,
      "WBa4": 6097,
      "YO": 6098,
      "YIn3": 6099,
      "YGe3": 6100,
      "YTc3": 6101,
      "YSc4": 6102,
      "YHfZr": 6103,
      "YTaNb": 6104,
      "YWRe": 6105,
      "br": 6106,
      "bu": 6107,
      "ca": 6108,
      "dder": 6109,
      "sn": 6110,
      "tetium": 6111,
      "InCa3": 6112,
      "InNa3": 6113,
      "InHg3": 6114,
      "Al8": 6115,
      "AlN": 6116,
      "AlO": 6117,
      "Al11": 6118,
      "AlSe4": 6119,
      "MgC": 6120,
      "MgBi3": 6121,
      "MgIn4": 6122,
      "MgYZr": 6123,
      "MgYHf": 6124,
      "CoAu3": 6125,
      "ZrAg2": 6126,
      "ZrGe2": 6127,
      "ZrNb3": 6128,
      "ZrTl3": 6129,
      "ZrTc4": 6130,
      "Cu8": 6131,
      "CuN": 6132,
      "CuIn3": 6133,
      "CuCu7": 6134,
      "TiK3": 6135,
      "TiSi3": 6136,
      "TiC4": 6137,
      "FeSi2": 6138,
      "FeRh2": 6139,
      "FeB2": 6140,
      "FeZn3": 6141,
      "HfAl3": 6142,
      "HfFe3": 6143,
      "HfRe3": 6144,
      "Ni11": 6145,
      "NiZn2": 6146,
      "NbMo3": 6147,
      "LaNa": 6148,
      "LaSb2": 6149,
      "LaNi3": 6150,
      "LaGe3": 6151,
      "LaTi3": 6152,
      "LaTl3": 6153,
      "LaTi4": 6154,
      "LaMn4": 6155,
      "LaHfZr": 6156,
      "LaMoOs": 6157,
      "TaSn3": 6158,
      "TaRe4": 6159,
      "SnO": 6160,
      "SnSn4": 6161,
      "SnV3": 6162,
      "PdCa4": 6163,
      "PdBa4": 6164,
      "CaPa": 6165,
      "CaNb4": 6166,
      "CaHfZr": 6167,
      "CaYSc": 6168,
      "CaYZr": 6169,
      "CaNbV": 6170,
      "CaTiTc": 6171,
      "ScC": 6172,
      "ScO3": 6173,
      "ScSn3": 6174,
      "ScAg3": 6175,
      "ScV3": 6176,
      "ScTc3": 6177,
      "ScTa4": 6178,
      "ScHfZr": 6179,
      "ScZrTa": 6180,
      "LiTc3": 6181,
      "LiSrCa": 6182,
      "LiCaSc": 6183,
      "PtCu2": 6184,
      "PtHf3": 6185,
      "AgO3": 6186,
      "AgHg3": 6187,
      "AgAs3": 6188,
      "AgAg6": 6189,
      "PbCa3": 6190,
      "PbBr3": 6191,
      "CdK": 6192,
      "CdCd": 6193,
      "SrO3": 6194,
      "SrSn3": 6195,
      "SrNi3": 6196,
      "SrRh3": 6197,
      "SrMn3": 6198,
      "SrGe3": 6199,
      "SrNb3": 6200,
      "SrLi4": 6201,
      "SrYTi": 6202,
      "SrScHf": 6203,
      "SrTcOs": 6204,
      "SrCrRe": 6205,
      "SrMoRe": 6206,
      "Mn8": 6207,
      "MnBr2": 6208,
      "MnCo2": 6209,
      "AuLa3": 6210,
      "AuGa3": 6211,
      "AuGe3": 6212,
      "AuTe4": 6213,
      "RhIn3": 6214,
      "BaF": 6215,
      "BaSe": 6216,
      "BaPb3": 6217,
      "BaRh3": 6218,
      "BaNb3": 6219,
      "BaTaNb": 6220,
      "BaNbW": 6221,
      "BaHfTi": 6222,
      "BaGd2": 6223,
      "BaZrV": 6224,
      "BaTcMn": 6225,
      "BaTaOs": 6226,
      "BiV": 6227,
      "Bi12": 6228,
      "BiO3": 6229,
      "BiO2": 6230,
      "BiF3": 6231,
      "BiTi3": 6232,
      "Modder": 6233,
      "NaCaMg": 6234,
      "NaTaNb": 6235,
      "NaYSc": 6236,
      "NaYZr": 6237,
      "NaNbW": 6238,
      "NaCaSc": 6239,
      "NaLiMg": 6240,
      "NaHfRe": 6241,
      "NaHfV": 6242,
      "NaHfCr": 6243,
      "TlCa3": 6244,
      "TlPt3": 6245,
      "ZnH": 6246,
      "ZnK3": 6247,
      "ZnCa3": 6248,
      "ZnMgSe": 6249,
      "ZnGa3Hg": 6250,
      "RuSe3": 6251,
      "RuIn3": 6252,
      "IrBa3": 6253,
      "IrK4": 6254,
      "TcK3": 6255,
      "TcMo3": 6256,
      "HgBi2": 6257,
      "HgO2": 6258,
      "HgCl3": 6259,
      "HgBr4": 6260,
      "ReC": 6261,
      "ReAg2": 6262,
      "ReFe3": 6263,
      "RePb4": 6264,
      "CrO2": 6265,
      "CrTc4": 6266,
      "GaB3": 6267,
      "SiSr4": 6268,
      "Silicon": 6269,
      "BeLaY": 6270,
      "BeLaSc": 6271,
      "SbNa3": 6272,
      "TeC": 6273,
      "TeO": 6274,
      "TeSc3": 6275,
      "SeO": 6276,
      "AsO2": 6277,
      "AsNa3": 6278,
      "AsK4": 6279,
      "monoboride": 6280,
      "1214": 6281,
      "12825": 6282,
      "formaldehyde": 6283,
      "134": 6284,
      "1312825": 6285,
      "167": 6286,
      "235": 6287,
      "24167": 6288,
      "RbBa": 6289,
      "CsNa3": 6290,
      "CeV2": 6291,
      "CeW2": 6292,
      "501312825": 6293,
      "4669": 6294,
      "ErFe2": 6295,
      "SmB": 6296,
      "SmCe2": 6297,
      "DyNi": 6298,
      "Nd6": 6299,
      "NpCo": 6300,
      "LuDy": 6301,
      "LuYb": 6302,
      "LuEr2": 6303,
      "TmTb": 6304,
      "PuAs": 6305,
      "PaTh2": 6306,
      "EuMn": 6307,
      "ThNd": 6308,
      "ThAc": 6309,
      "ThHo2": 6310,
      "YbPm": 6311,
      "TbSi": 6312,
      "Ac4": 6313,
      "Ba2Yb": 6314,
      "Zr2V": 6315,
      "Zr2Nb2": 6316,
      "Zr2TiAl": 6317,
      "Sr2Dy": 6318,
      "carbanide": 6319,
      "La2Fe": 6320,
      "Nb2SbP": 6321,
      "Ti2Fe": 6322,
      "Ti2Ag": 6323,
      "Hf2Sn": 6324,
      "Fe2N": 6325,
      "Ag2Y": 6326,
      "V2Zn": 6327,
      "N2O3": 6328,
      "Ba3Mg": 6329,
      "Ba3Ti": 6330,
      "Ba3Mo": 6331,
      "Ba3Be": 6332,
      "K3Y": 6333,
      "Sr3Be": 6334,
      "Ca3B": 6335,
      "Au3In": 6336,
      "Y4Sn3": 6337,
      "Y4Ag4": 6338,
      "Li3Au": 6339,
      "La3Ag": 6340,
      "K4Zn3": 6341,
      "K4Ir3": 6342,
      "Y3Sc": 6343,
      "Y3Zr2Nb2": 6344,
      "Mg3Pb": 6345,
      "Mg3Cd": 6346,
      "Mg3Hg": 6347,
      "Sn3P": 6348,
      "Sn3Bi4": 6349,
      "Ca4Sn": 6350,
      "P3Pb4": 6351,
      "Zn3Pb": 6352,
      "Cu3B4": 6353,
      "C2N": 6354,
      "Ag3Sn": 6355,
      "Ag3Pb": 6356,
      "Ag3Cd": 6357,
      "Ag3Sb": 6358,
      "Ag3Bi4": 6359,
      "Hg3Br": 6360,
      "Ni3Sb": 6361,
      "Hf3Cu": 6362,
      "Hf3Re": 6363,
      "Hf3Sb4": 6364,
      "Ga3Si": 6365,
      "Ga3B4": 6366,
      "Pt3Pb4": 6367,
      "Cd3Hg": 6368,
      "In3Pb": 6369,
      "In3Te": 6370,
      "In3Pd4": 6371,
      "Sr4Ta3": 6372,
      "Zr3Pb": 6373,
      "Zr3Re": 6374,
      "Pb4As": 6375,
      "Ta3Br": 6376,
      "Ta3Ti4": 6377,
      "Ta3Ge4": 6378,
      "Si3P": 6379,
      "Nb3Pb": 6380,
      "Nb3Hg": 6381,
      "Sc3Tl": 6382,
      "Sc3Ir": 6383,
      "Zr4Nb3": 6384,
      "Tl3B": 6385,
      "Bi4Se": 6386,
      "Bi4Sb3": 6387,
      "Fe4Pd": 6388,
      "Fe4B8": 6389,
      "Ir3Br4": 6390,
      "Mg4In3": 6391,
      "Ba4Ca3": 6392,
      "Ba4La8": 6393,
      "Na4Pb3": 6394,
      "Na4Mo4": 6395,
      "Hf4Ta8": 6396,
      "Sc4P3": 6397,
      "In4Hg3": 6398,
      "Tl4Hg3": 6399,
      "Re3Os": 6400,
      "Re3Se": 6401,
      "Re3Te4": 6402,
      "V4Ga3": 6403,
      "lutetium": 6404,
      "Pt4Sn": 6405,
      "Al4Pb": 6406,
      "Al4Br": 6407,
      "H2O3": 6408,
      "Cr4Se3": 6409,
      "Cr4Fe3": 6410,
      "Cr4Hg3": 6411,
      "B4P": 6412,
      "B4Ir4": 6413,
      "ethane": 6414,
      "Ga4Sb": 6415,
      "AgCdZn": 6416,
      "H3Cl": 6417,
      "H3O4": 6418,
      "CuCdSn": 6419,
      "AuCdIn": 6420,
      "AuCdPb": 6421,
      "Gd2Eu": 6422,
      "CuAlNi": 6423,
      "CuAlBi": 6424,
      "TlGaSn": 6425,
      "CuInPb": 6426,
      "CuInBi": 6427,
      "AgZnSn": 6428,
      "AgHgPb": 6429,
      "RhZnPb": 6430,
      "RhZnBi": 6431,
      "TlPbBi": 6432,
      "RhAuPb": 6433,
      "CuZnSn": 6434,
      "CuZnPb": 6435,
      "PtInGa": 6436,
      "PtAuHg": 6437,
      "Np2Tb": 6438,
      "Pa2Ac": 6439,
      "Lu2Yb": 6440,
      "VMnBi": 6441,
      "Ho2Tb": 6442,
      "Tm2Ho": 6443,
      "PdInPb": 6444,
      "magnesiosodium": 6445,
      "NH5": 6446,
      "NH7": 6447,
      "arsanylidene": 6448,
      "selanylidenemolybdenum": 6449,
      "selanylidenetechnetium": 6450,
      "chloroosmium": 6451,
      "TaZn6": 6452,
      "CaCa6": 6453,
      "phosphanylidynecobalt": 6454,
      "stibino": 6455,
      "silyllithium": 6456,
      "silylborane": 6457,
      "YPd2Si": 6458,
      "boranylidynelanthanum": 6459,
      "SrCa3Ta": 6460,
      "tetrafluoride": 6461,
      "dtxsid501312825": 6462,
      "12034": 6463,
      "NaLi3Mg": 6464,
      "silylars": 6465,
      "ns00086": 6466,
      "ropium": 6467,
      "europium": 6468,
      "pubchem_71354669": 6469,
      "Modderite": 6470,
      "stibinogallane": 6471,
      "silylarsine": 6472,
      "069": 6473,
      "2Hg": 6474,
      "2ReAl": 6475,
      "2TaAl": 6476,
      "2GaAs": 6477,
      "490": 6478,
      "Bor": 6479,
      "BMg3": 6480,
      "CSe": 6481,
      "HSe": 6482,
      "KU": 6483,
      "KSe": 6484,
      "KPr": 6485,
      "KFe3": 6486,
      "KSrCa": 6487,
      "KLaZr": 6488,
      "KNbW": 6489,
      "KLaSc": 6490,
      "KCaBe": 6491,
      "KYCr": 6492,
      "KTiRe": 6493,
      "NCl3": 6494,
      "O18": 6495,
      "PY3": 6496,
      "SI": 6497,
      "VO": 6498,
      "VBr3": 6499,
      "VCd3": 6500,
      "VIn3": 6501,
      "VMo3": 6502,
      "VCo3": 6503,
      "VCr3": 6504,
      "VRe3": 6505,
      "VIr4": 6506,
      "WAu3": 6507,
      "WZn3": 6508,
      "WGe3": 6509,
      "WCr3": 6510,
      "WRu4": 6511,
      "Xe": 6512,
      "Y7": 6513,
      "YCu3": 6514,
      "YCl3": 6515,
      "YNb3": 6516,
      "YSc3": 6517,
      "YAs3": 6518,
      "YCd4": 6519,
      "YAg4": 6520,
      "YCl4": 6521,
      "YWMo": 6522,
      "YNbV": 6523,
      "YNbMo": 6524,
      "gad": 6525,
      "onickel": 6526,
      "anite": 6527,
      "algam": 6528,
      "InHg": 6529,
      "InTe3": 6530,
      "Al7": 6531,
      "AlK": 6532,
      "AlMg3": 6533,
      "MgEu": 6534,
      "MgRh3": 6535,
      "MgCl3": 6536,
      "MgGe3": 6537,
      "MgTi3": 6538,
      "MgTl3": 6539,
      "MgTi4": 6540,
      "MgRe3": 6541,
      "MgHfZr": 6542,
      "MgCe2": 6543,
      "MgYV": 6544,
      "CoO2": 6545,
      "CoBi3": 6546,
      "CoAg3": 6547,
      "CoGa3": 6548,
      "CoGe3": 6549,
      "ZrNi3": 6550,
      "ZrRu3": 6551,
      "ZrCr4": 6552,
      "ZrNbRe": 6553,
      "CuY3": 6554,
      "CuP3": 6555,
      "Cupr": 6556,
      "TiTi": 6557,
      "TiTe2": 6558,
      "TiK4": 6559,
      "TiP3": 6560,
      "TiAs3": 6561,
      "TiW3": 6562,
      "TiOs4": 6563,
      "TiTa4": 6564,
      "TiW4": 6565,
      "TiS2": 6566,
      "Fe9": 6567,
      "FeCd2": 6568,
      "FeV2": 6569,
      "HfPt2": 6570,
      "HfTe3": 6571,
      "HfNbRe": 6572,
      "HfHf6": 6573,
      "HfMg3Bi": 6574,
      "NiSi2": 6575,
      "NiP3": 6576,
      "NiIn3": 6577,
      "NbAs2": 6578,
      "NbPd3": 6579,
      "NbCo3": 6580,
      "NbRe3": 6581,
      "LaAu2": 6582,
      "LaHg2": 6583,
      "LaFe4": 6584,
      "LaIr3": 6585,
      "LaRe4": 6586,
      "TaSn4": 6587,
      "TaAs3": 6588,
      "TaWMo": 6589,
      "TaWRe": 6590,
      "SnSi2": 6591,
      "SnGe3": 6592,
      "SnS3": 6593,
      "CaGd": 6594,
      "CaTh": 6595,
      "CaSn3": 6596,
      "CaAl3": 6597,
      "CaCa4": 6598,
      "CaCu3": 6599,
      "CaMg4": 6600,
      "CaRu3": 6601,
      "CaTi4": 6602,
      "CaYHf": 6603,
      "CaLaSc": 6604,
      "CaLaV": 6605,
      "CaYTa": 6606,
      "CaTiRe": 6607,
      "CaHfMo": 6608,
      "CaPa2": 6609,
      "CaHfNb": 6610,
      "CaNd2": 6611,
      "ScNa3": 6612,
      "ScTe3": 6613,
      "ScMo3": 6614,
      "ScCrRu": 6615,
      "ScMoRe": 6616,
      "Li9": 6617,
      "LiU": 6618,
      "LiSb": 6619,
      "LiCu2": 6620,
      "LiHf3": 6621,
      "LiLi4": 6622,
      "LiMo4": 6623,
      "LiCo4": 6624,
      "LiLaTa": 6625,
      "LiYCr": 6626,
      "PtPd4": 6627,
      "AgCa3": 6628,
      "AgZn3": 6629,
      "PbO2": 6630,
      "PbCl3": 6631,
      "PbIn1": 6632,
      "CdIn2": 6633,
      "CdK3": 6634,
      "Sr7": 6635,
      "SrO": 6636,
      "SrBe3": 6637,
      "SrCaMg": 6638,
      "SrTaNb": 6639,
      "SrNbMo": 6640,
      "SrScTa": 6641,
      "SrNbRe": 6642,
      "MnZn3": 6643,
      "MnCu3": 6644,
      "MnGe3": 6645,
      "AuAg2": 6646,
      "AuSr3": 6647,
      "AuSn3": 6648,
      "AuSi3": 6649,
      "AuBr4": 6650,
      "Rh7": 6651,
      "RhPb3": 6652,
      "RhNa3": 6653,
      "RhSe3": 6654,
      "RhAl3": 6655,
      "BaPa": 6656,
      "BaZr4": 6657,
      "BaV3": 6658,
      "BaOs3": 6659,
      "BaLaZr": 6660,
      "BaPdCd": 6661,
      "BaReOs": 6662,
      "BaLaV": 6663,
      "BaHfMo": 6664,
      "BaTiOs": 6665,
      "BaTh2": 6666,
      "BaMoRh": 6667,
      "BaFeHg": 6668,
      "BaYNb": 6669,
      "BaHg2Se": 6670,
      "BiSe3": 6671,
      "BiMn3": 6672,
      "MoCu3": 6673,
      "MoPt4": 6674,
      "NaGd": 6675,
      "NaNd": 6676,
      "NaAl3": 6677,
      "NaCu3": 6678,
      "NaNi3": 6679,
      "NaCl3": 6680,
      "NaLi4": 6681,
      "NaHfZr": 6682,
      "NaScHf": 6683,
      "NaYV": 6684,
      "NaZrNb": 6685,
      "TlLi3": 6686,
      "TlNa3": 6687,
      "TlIn3": 6688,
      "TlTe3": 6689,
      "TlCo3": 6690,
      "TlSe4": 6691,
      "ZnMg3": 6692,
      "ZnP3": 6693,
      "ZnNi3": 6694,
      "ZnO7": 6695,
      "RuAu3": 6696,
      "TcCu3": 6697,
      "TcRu4": 6698,
      "HgCr2": 6699,
      "HgNa3": 6700,
      "OsZn3": 6701,
      "OsIn3": 6702,
      "ReBa3": 6703,
      "RePd3": 6704,
      "ReSn3": 6705,
      "ReCd3": 6706,
      "ReMn3": 6707,
      "Cr9": 6708,
      "CrSe2": 6709,
      "CrK3": 6710,
      "GaMg3": 6711,
      "BeRh2": 6712,
      "BeY4": 6713,
      "BeNb3": 6714,
      "BeZrTa": 6715,
      "BeYCr": 6716,
      "BeHfNb": 6717,
      "SbMn3": 6718,
      "TeCl3": 6719,
      "TeTe4": 6720,
      "GeBr3": 6721,
      "GeGe6": 6722,
      "erbium": 6723,
      "AsMg3": 6724,
      "monickel": 6725,
      "monochloride": 6726,
      "monosilicide": 6727,
      "forty": 6728,
      "cuboctahedral": 6729,
      "158": 6730,
      "845": 6731,
      "RbNi": 6732,
      "RbTc": 6733,
      "RbTm": 6734,
      "RbY3": 6735,
      "RbPt3": 6736,
      "RbCe2": 6737,
      "Po6": 6738,
      "PoPo6": 6739,
      "CsPd": 6740,
      "CsTe": 6741,
      "CsLi3": 6742,
      "CsDy2": 6743,
      "ErDy": 6744,
      "ErW3": 6745,
      "ErDy2": 6746,
      "SmCe": 6747,
      "DyMn": 6748,
      "Dy12": 6749,
      "NdSb": 6750,
      "NdSn2": 6751,
      "NpEr2": 6752,
      "5212": 6753,
      "HoSb": 6754,
      "HoSe": 6755,
      "Lu6": 6756,
      "LuLa2": 6757,
      "TmCd": 6758,
      "TmEr2": 6759,
      "TmSm2": 6760,
      "PuTi": 6761,
      "PuIr": 6762,
      "PuEu": 6763,
      "PuDy2": 6764,
      "EuLa2": 6765,
      "ThLu": 6766,
      "ThPr": 6767,
      "ThCe2": 6768,
      "PmLa2": 6769,
      "PrCu": 6770,
      "PrSi": 6771,
      "PrMn2": 6772,
      "YbGd": 6773,
      "Tb6": 6774,
      "TbPm": 6775,
      "Ba2Sr": 6776,
      "Ba2YPt": 6777,
      "Ba2VRh": 6778,
      "Zr2Ti": 6779,
      "Sr2Er": 6780,
      "Sr2Lu": 6781,
      "Sr2FeNi": 6782,
      "Sr2PtTe": 6783,
      "Sr2Mg1": 6784,
      "Mg2Ti": 6785,
      "Mg2Pd": 6786,
      "La2AgCl": 6787,
      "Sn2As3": 6788,
      "K2U": 6789,
      "Si2Ge2": 6790,
      "Ti2P": 6791,
      "Ti2W": 6792,
      "Ti2Zn": 6793,
      "Ti2CuAl": 6794,
      "Hf2IrHg": 6795,
      "urane": 6796,
      "Y2Ru": 6797,
      "Au2S": 6798,
      "Cu2Al2Si": 6799,
      "Na2Ge": 6800,
      "Na2Np": 6801,
      "Na2Tm": 6802,
      "Na2LiCl": 6803,
      "Ta2Ir": 6804,
      "Mn2Pb": 6805,
      "Ni2C": 6806,
      "Co2Sn": 6807,
      "Os2Pd": 6808,
      "Os2Ru": 6809,
      "Ir2Ge": 6810,
      "Be2TiBi": 6811,
      "Ba3V": 6812,
      "Ba3Ru": 6813,
      "K3B": 6814,
      "K3Zr": 6815,
      "K3Ca": 6816,
      "K3Mg2": 6817,
      "K3Na2": 6818,
      "Sr3Mg": 6819,
      "Sr3Ti": 6820,
      "Sr3Mn": 6821,
      "Sr3LaPd": 6822,
      "La4Zr4": 6823,
      "La4Ir3": 6824,
      "La4Ru3": 6825,
      "La4Nb4": 6826,
      "alumanylidenelead": 6827,
      "Au3Ni": 6828,
      "Au3Bi": 6829,
      "Y4Br3": 6830,
      "Y4Cd3": 6831,
      "Li3Al": 6832,
      "Li3Pb": 6833,
      "Li3Sb": 6834,
      "Li3As": 6835,
      "Li3Y4": 6836,
      "Na3Y4": 6837,
      "Bi3Ru4": 6838,
      "Bi3Au4": 6839,
      "Bi3Rh4": 6840,
      "Pd3Tl": 6841,
      "La3B": 6842,
      "La3Ta": 6843,
      "La3Ge": 6844,
      "La3As": 6845,
      "K4Sn": 6846,
      "K4Ge3": 6847,
      "K4Si3": 6848,
      "K4Fe8": 6849,
      "Y3Ag": 6850,
      "Y3Re": 6851,
      "Y3Se": 6852,
      "Y3Ge2": 6853,
      "Mg3Sc": 6854,
      "Sn3Se": 6855,
      "Al3Mg": 6856,
      "Al3Ti": 6857,
      "Al3Sn": 6858,
      "Fe3Sb": 6859,
      "Ca4Cd": 6860,
      "Ca4Al3": 6861,
      "Ca4Mn3": 6862,
      "amalgam": 6863,
      "Ag3B4": 6864,
      "Hg3Si": 6865,
      "Hg3Ge4": 6866,
      "Ni3Au": 6867,
      "Hf3P": 6868,
      "Hf3Sb": 6869,
      "Cd3Tl": 6870,
      "Cd3Ga": 6871,
      "Mn3Si": 6872,
      "In3O": 6873,
      "In3Sn": 6874,
      "Sr4Ca4": 6875,
      "Sr4Co3": 6876,
      "Ge3Se": 6877,
      "Ge3Cl": 6878,
      "Zr3Cl": 6879,
      "Ti3Pd4": 6880,
      "Te3Ru4": 6881,
      "Sn4Br": 6882,
      "Sn4Ir3": 6883,
      "Sn4Ir8": 6884,
      "Ta3Pd": 6885,
      "Ta3Tl": 6886,
      "Ta3Hg": 6887,
      "Si3C": 6888,
      "Nb3Ge": 6889,
      "Nb3Cd4": 6890,
      "Sc3B": 6891,
      "Sc3Al": 6892,
      "Co3Cd": 6893,
      "B3Pb": 6894,
      "B3Cl": 6895,
      "Bi4Pt3": 6896,
      "Fe4B4": 6897,
      "Fe4Mo6": 6898,
      "Ir3Pt": 6899,
      "Mg4Ge3": 6900,
      "Mg4B3": 6901,
      "Mg4V3": 6902,
      "Mg4Ir8": 6903,
      "Ba4Mo6": 6904,
      "Tc3Ag": 6905,
      "Cr3Pb4": 6906,
      "Hf4As3": 6907,
      "Sb4Br": 6908,
      "Sb4Rh3": 6909,
      "Ru3Sb": 6910,
      "Sc4Bi3": 6911,
      "Sc4Pt3": 6912,
      "Sc4Ta4": 6913,
      "Nb4Fe8": 6914,
      "Nb4Cd8": 6915,
      "Os4Pb3": 6916,
      "In4Pd3": 6917,
      "In4Mo3": 6918,
      "In4Pt4": 6919,
      "Cd4Hg3": 6920,
      "Cd4Mo8": 6921,
      "Cd4Bi8": 6922,
      "Tl4Sn3": 6923,
      "Pd4P": 6924,
      "Pd4Cl3": 6925,
      "Li4Mn3": 6926,
      "V4Se3": 6927,
      "V4Co3": 6928,
      "Pt4In": 6929,
      "Co4Ni3": 6930,
      "Hg4In": 6931,
      "Hg4Pt3": 6932,
      "Hg4W8": 6933,
      "Cr4Co4": 6934,
      "Au4Br3": 6935,
      "Ge4Sb": 6936,
      "Ge4Te3": 6937,
      "Rh4Br3": 6938,
      "Re4Ag8": 6939,
      "Si4P": 6940,
      "Si4Ir3": 6941,
      "Ga4Ag3": 6942,
      "selenurane": 6943,
      "WMoCr": 6944,
      "Be4Co3": 6945,
      "C3As": 6946,
      "Zn4Al": 6947,
      "H3Se": 6948,
      "PtPdCd": 6949,
      "PtPdBi": 6950,
      "NbVW": 6951,
      "HgZnAl": 6952,
      "HgZnSn": 6953,
      "HgZnGa": 6954,
      "CuCdTl": 6955,
      "AuCdAl": 6956,
      "BaSrCo2": 6957,
      "CuHgBi": 6958,
      "CuAlPb": 6959,
      "CuInGa": 6960,
      "PtNiAu": 6961,
      "olinium": 6962,
      "AuInBi": 6963,
      "AgInSn": 6964,
      "RhPdSn": 6965,
      "RhPdBi": 6966,
      "chloronickel": 6967,
      "RhAuSn": 6968,
      "IrCoBi": 6969,
      "PtInSn": 6970,
      "N3O": 6971,
      "Dy2Eu": 6972,
      "Pa2Th": 6973,
      "Pa2Pm": 6974,
      "FeRhCd": 6975,
      "ZnInBi": 6976,
      "KNaLi2": 6977,
      "IrNiPb": 6978,
      "AgCuTl": 6979,
      "Ho2Gd": 6980,
      "HgCdTl": 6981,
      "Tm2Er": 6982,
      "bromonickel": 6983,
      "NiAuTl": 6984,
      "U2Pa": 6985,
      "ReZnPb": 6986,
      "RhAgTl": 6987,
      "PtZnPb": 6988,
      "MgLaCl2": 6989,
      "MnHgPb3": 6990,
      "InSnP3": 6991,
      "IrTlAl": 6992,
      "LaReSn2": 6993,
      "BPBr": 6994,
      "V6As5": 6995,
      "Y6Zr4": 6996,
      "arsino": 6997,
      "SnSbP3": 6998,
      "SrSr5": 6999,
      "K6Y4": 7000,
      "Ta8Pb4": 7001,
      "Ta8Sn4": 7002,
      "Ta8Hg4": 7003,
      "chloroborane": 7004,
      "chloroselenurane": 7005,
      "MgGaSn3": 7006,
      "alumanylidyneborane": 7007,
      "Si5Ir5": 7008,
      "bromous": 7009,
      "arsanylidynetungsten": 7010,
      "arsanylidynegermanium": 7011,
      "Sr6Pd4": 7012,
      "sulfane": 7013,
      "Nb8Os4": 7014,
      "Nb8In4": 7015,
      "TiBP3": 7016,
      "Mo8Os4": 7017,
      "dtxsid606": 7018,
      "SrLi3Sc": 7019,
      "12066": 7020,
      "In5B4": 7021,
      "CaMg3Al": 7022,
      "Sb8Os4": 7023,
      "Sb8Ru4": 7024,
      "Ca4Nb4Os4": 7025,
      "silylene": 7026,
      "hypobromous": 7027,
      "P4Ir4Pt4": 7028,
      "Mg2Y2Cu": 7029,
      "13494": 7030,
      "Na4Mo4Rh6": 7031,
      "069490": 7032,
      "Boron": 7033,
      "gadolinium": 7034,
      "Cuprite": 7035,
      "Ba4Mo6Rh4": 7036,
      "arsinoborane": 7037,
      "dtxsid6065212": 7038,
      "0694905": 7039,
      ".,": 7040,
      "2Cu": 7041,
      "2InB": 7042,
      "2AgTe": 7043,
      "495": 7044,
      "593": 7045,
      "626": 7046,
      "8Pb4": 7047,
      "Boride": 7048,
      "BCl3": 7049,
      "I12": 7050,
      "KP": 7051,
      "KAs": 7052,
      "KPu": 7053,
      "KPb3": 7054,
      "KSi3": 7055,
      "KNb3": 7056,
      "KV3": 7057,
      "KCr3": 7058,
      "KTc4": 7059,
      "KLiBa": 7060,
      "KBaMg": 7061,
      "KNbMo": 7062,
      "KNaMg": 7063,
      "KCrOs": 7064,
      "KWTc": 7065,
      "KCaZr": 7066,
      "KTiTa": 7067,
      "KCrRe": 7068,
      "KCrRu": 7069,
      "KNbRu": 7070,
      "KTiOs": 7071,
      "KK6": 7072,
      "NSe": 7073,
      "NO4": 7074,
      "OI": 7075,
      "O21": 7076,
      "O29": 7077,
      "ON2": 7078,
      "OSr2Ca4": 7079,
      "OBa2Ca4": 7080,
      "PI": 7081,
      "PSe2": 7082,
      "S9": 7083,
      "S19": 7084,
      "UAc": 7085,
      "ULu2": 7086,
      "UTh2": 7087,
      "VLa": 7088,
      "VAl2": 7089,
      "VO4": 7090,
      "VOF2": 7091,
      "WTl2": 7092,
      "WSe2": 7093,
      "WSe3": 7094,
      "WIn3": 7095,
      "WMo3": 7096,
      "YHg2": 7097,
      "YO2": 7098,
      "YTi3": 7099,
      "YCo3": 7100,
      "YV4": 7101,
      "YFeCo": 7102,
      "cyclo": 7103,
      "etane": 7104,
      "mgh": 7105,
      "nsc": 7106,
      "ohypobromous": 7107,
      "q2": 7108,
      "thal": 7109,
      "ren": 7110,
      "InSn4": 7111,
      "In8W4": 7112,
      "AlZn": 7113,
      "AlSn3": 7114,
      "AlCu3": 7115,
      "AlPb4": 7116,
      "MgY4": 7117,
      "MgFe3": 7118,
      "MgIn3": 7119,
      "MgMo3": 7120,
      "MgOs4": 7121,
      "MgCr4": 7122,
      "MgTaNb": 7123,
      "MgLaTi": 7124,
      "MgYTa": 7125,
      "CoC": 7126,
      "CoSc3": 7127,
      "CoAs3": 7128,
      "CoN3": 7129,
      "ZrK3": 7130,
      "ZrPb3": 7131,
      "ZrOs3": 7132,
      "ZrCr3": 7133,
      "ZrNi4": 7134,
      "ZrTaNb": 7135,
      "ZrTiTa": 7136,
      "ZrS3": 7137,
      "ZrMoRe": 7138,
      "ZrZr6": 7139,
      "CuF": 7140,
      "CuAu3": 7141,
      "CuTi3": 7142,
      "CuTe4": 7143,
      "TiCl3": 7144,
      "TiTe3": 7145,
      "TiTa3": 7146,
      "TiOs3": 7147,
      "TiNbW": 7148,
      "TiNbCr": 7149,
      "FeS": 7150,
      "Fe11": 7151,
      "FeSn2": 7152,
      "FeSb2": 7153,
      "FeCa3": 7154,
      "FeSe3": 7155,
      "FeCu3": 7156,
      "FeBr3": 7157,
      "HfHf": 7158,
      "HfTl2": 7159,
      "HfCd2": 7160,
      "HfBr3": 7161,
      "HfB3": 7162,
      "HfTl3": 7163,
      "HfNb4": 7164,
      "HfNbV": 7165,
      "NiGa2": 7166,
      "NiK3": 7167,
      "NiCa3": 7168,
      "NiBi3": 7169,
      "NiSn3": 7170,
      "NiCu3": 7171,
      "NiNi4": 7172,
      "NbO2": 7173,
      "NbP3": 7174,
      "NbHg3": 7175,
      "NbGe3": 7176,
      "NbAs3": 7177,
      "NbRu4": 7178,
      "NbRh4": 7179,
      "LaMg": 7180,
      "LaY4": 7181,
      "LaHg3": 7182,
      "LaRh3": 7183,
      "LaHf4": 7184,
      "LaRu3": 7185,
      "LaSc4": 7186,
      "LaCu4": 7187,
      "LaYHf": 7188,
      "LaRhPd": 7189,
      "LaCrOs": 7190,
      "LaWOs": 7191,
      "LaAu2Ag": 7192,
      "Ta7": 7193,
      "TaSr3": 7194,
      "TaNi3": 7195,
      "TaPt3": 7196,
      "TaOs3": 7197,
      "TaMoTc": 7198,
      "SnSe2": 7199,
      "SnBr3": 7200,
      "PdC": 7201,
      "PdSr3": 7202,
      "PdIn3": 7203,
      "Pd8W4": 7204,
      "CaY3": 7205,
      "CaRh3": 7206,
      "CaTa3": 7207,
      "CaMo3": 7208,
      "CaBe3": 7209,
      "CaCr3": 7210,
      "CaWRe": 7211,
      "CaYCr": 7212,
      "CaWOs": 7213,
      "CaTiTa": 7214,
      "CaVW": 7215,
      "ScCd2": 7216,
      "ScPd3": 7217,
      "ScCu3": 7218,
      "ScW3": 7219,
      "ScMn4": 7220,
      "ScNbV": 7221,
      "ScNbRh": 7222,
      "LiSm": 7223,
      "LiLu": 7224,
      "LiPr": 7225,
      "LiO3": 7226,
      "LiAs2": 7227,
      "LiO2": 7228,
      "LiLa3": 7229,
      "LiHg3": 7230,
      "LiTa3": 7231,
      "LiW3": 7232,
      "LiBe3": 7233,
      "LiCr3": 7234,
      "LiNi4": 7235,
      "LiHfTi": 7236,
      "LiLaY": 7237,
      "LiLaV": 7238,
      "LiHo2": 7239,
      "LiZrTi": 7240,
      "PtPb2": 7241,
      "PtAl2": 7242,
      "PtAl3": 7243,
      "PtSn4": 7244,
      "AgNa4": 7245,
      "AgSe4": 7246,
      "AgPt6": 7247,
      "PbTe2": 7248,
      "PbSe3": 7249,
      "PbSc3": 7250,
      "CdN": 7251,
      "CdSb2": 7252,
      "CdPd3": 7253,
      "CdSn3": 7254,
      "CdAs3": 7255,
      "SrTa3": 7256,
      "SrCr4": 7257,
      "SrRe4": 7258,
      "SrWMo": 7259,
      "SrZrTa": 7260,
      "SrCrOs": 7261,
      "SrYTa": 7262,
      "SrWOs": 7263,
      "SrTcIr": 7264,
      "SrHfRe": 7265,
      "SrMoTc": 7266,
      "SrHfW": 7267,
      "SrScOs": 7268,
      "MnSb2": 7269,
      "MnGe2": 7270,
      "MnCl3": 7271,
      "MnPb4": 7272,
      "MnTl3": 7273,
      "AuIn2": 7274,
      "RhSr3": 7275,
      "BaNd": 7276,
      "BaNp": 7277,
      "BaYb": 7278,
      "BaZn2": 7279,
      "BaSn3": 7280,
      "BaIn3": 7281,
      "BaO4": 7282,
      "BaRu3": 7283,
      "BaYZr": 7284,
      "BaLaTa": 7285,
      "BaLaY": 7286,
      "BaTiTa": 7287,
      "BaLu2": 7288,
      "BaWIr": 7289,
      "BaVOs": 7290,
      "BiPd3": 7291,
      "BiCl3": 7292,
      "BiAs4": 7293,
      "MoSi2": 7294,
      "MoPd3": 7295,
      "MoHg3": 7296,
      "MoIr3": 7297,
      "MoTcOs": 7298,
      "NaLu": 7299,
      "NaEu": 7300,
      "NaAl2": 7301,
      "NaCo3": 7302,
      "NaOs3": 7303,
      "NaRe4": 7304,
      "NaLaSc": 7305,
      "NaScTa": 7306,
      "TlZn": 7307,
      "TlSe3": 7308,
      "TlCu3": 7309,
      "TlGa3": 7310,
      "TlSb3": 7311,
      "ZnK": 7312,
      "ZnO3": 7313,
      "ZnSr3": 7314,
      "ZnBi3": 7315,
      "ZnIn3": 7316,
      "Ru5": 7317,
      "RuZn3": 7318,
      "RuIr4": 7319,
      "IrBi2": 7320,
      "IrHg2": 7321,
      "IrAl3": 7322,
      "IrHg3": 7323,
      "IrSr4": 7324,
      "TcN": 7325,
      "TcZn3": 7326,
      "TcHg3": 7327,
      "TcAs3": 7328,
      "TcTc6": 7329,
      "HgO": 7330,
      "HgPb2": 7331,
      "HgBa3": 7332,
      "HgAu3": 7333,
      "HgTi3": 7334,
      "HgSn4": 7335,
      "HgSi3": 7336,
      "HgSc3": 7337,
      "HgGaSn": 7338,
      "OsAu2": 7339,
      "OsHf3": 7340,
      "OsCd3": 7341,
      "OsPb4": 7342,
      "OsBr4": 7343,
      "ReAs3": 7344,
      "ReRu4": 7345,
      "CrGa2": 7346,
      "CrCd3": 7347,
      "CrO4": 7348,
      "GaC": 7349,
      "GaLi3": 7350,
      "GaCl3": 7351,
      "SiSi6": 7352,
      "BeRh4": 7353,
      "BeLaTa": 7354,
      "BeYTi": 7355,
      "BeLaTi": 7356,
      "BeYV": 7357,
      "BeBe6": 7358,
      "SbAu3": 7359,
      "SbY4": 7360,
      "SbP3": 7361,
      "SbBr3": 7362,
      "TeO2": 7363,
      "TeCa3": 7364,
      "GePb3": 7365,
      "GeBi3": 7366,
      "GeK4": 7367,
      "100": 7368,
      "AsTe2": 7369,
      "AsAs6": 7370,
      "Cl9": 7371,
      "Cmm2": 7372,
      "70495": 7373,
      "P13": 7374,
      "7553": 7375,
      "RbCl": 7376,
      "RbAc": 7377,
      "8635": 7378,
      "058635": 7379,
      "CsU": 7380,
      "CsIr": 7381,
      "CsLu": 7382,
      "CsSr2": 7383,
      "CsF3": 7384,
      "CsBe3": 7385,
      "CsH3": 7386,
      "CePt": 7387,
      "CeSi2": 7388,
      "ErSi": 7389,
      "Er12": 7390,
      "Sm6": 7391,
      "SmIn": 7392,
      "SmPm": 7393,
      "DyCo": 7394,
      "DySb": 7395,
      "DyGe": 7396,
      "DyEu2": 7397,
      "NpTm2": 7398,
      "HoDy": 7399,
      "HoNd2": 7400,
      "PuYb": 7401,
      "PuTb": 7402,
      "PuRu3": 7403,
      "PuNp2": 7404,
      "PuEu2": 7405,
      "EuNi": 7406,
      "EuOs": 7407,
      "EuSm2": 7408,
      "ThSm2": 7409,
      "ThEu2": 7410,
      "12017": 7411,
      "12022": 7412,
      "PrNi": 7413,
      "PrPt": 7414,
      "YbPr": 7415,
      "YbDy2": 7416,
      "TbNi": 7417,
      "TbPd": 7418,
      "TbPm2": 7419,
      "O3Cl2": 7420,
      "Zr2Fe": 7421,
      "Zr2Sb": 7422,
      "Zr2CoSn": 7423,
      "Sr2Pa": 7424,
      "Mg2Nb": 7425,
      "In2Au3": 7426,
      "K2Nd": 7427,
      "Nb2Fe": 7428,
      "Nb2In6": 7429,
      "Sc2Ni": 7430,
      "Ti2Au": 7431,
      "Ti2VAl": 7432,
      "Hf2Ti": 7433,
      "Hf2Ta": 7434,
      "Hf2Tl": 7435,
      "Al2Ag": 7436,
      "Li2B": 7437,
      "Li2Sn": 7438,
      "Li2Yb": 7439,
      "Fe2Si": 7440,
      "Au2Hf": 7441,
      "Na2Mg": 7442,
      "Na2Ca": 7443,
      "Na2Pu": 7444,
      "V2Hg": 7445,
      "P2O3": 7446,
      "P2O9": 7447,
      "Ta2Ni": 7448,
      "W2Al": 7449,
      "Mn2Sb": 7450,
      "Ge2S": 7451,
      "Ge2Sb3": 7452,
      "Cr2Os": 7453,
      "B2O5": 7454,
      "Be2Cr": 7455,
      "Tc2Mn": 7456,
      "Tc2Sb": 7457,
      "Ba3Se": 7458,
      "Ba3Br": 7459,
      "K3La": 7460,
      "Re2Pt": 7461,
      "Re2Os": 7462,
      "Sr3Pt": 7463,
      "Sr3Ir": 7464,
      "La4P3": 7465,
      "La4Os3": 7466,
      "La4Mo8": 7467,
      "Ca3Pd": 7468,
      "Ca3Sc": 7469,
      "alumanylpotassium": 7470,
      "Pb3Cl": 7471,
      "Y4Se3": 7472,
      "Y4Cu3": 7473,
      "Y4Hg3": 7474,
      "Y4Nb3": 7475,
      "Y4Zr4": 7476,
      "Li3Fe": 7477,
      "Li3Pt": 7478,
      "Li3Sb2": 7479,
      "Na3Mg": 7480,
      "Na3Re": 7481,
      "Na3Ge": 7482,
      "Bi3Pt4": 7483,
      "Pd3Hg": 7484,
      "La3Sc": 7485,
      "La3Ir": 7486,
      "K4Hf3": 7487,
      "K4Nb3": 7488,
      "K4Ga4": 7489,
      "K4Pd8": 7490,
      "Y3Ir": 7491,
      "Y3Tc": 7492,
      "Y3Hf4": 7493,
      "Y3Zn4": 7494,
      "Mg3In": 7495,
      "Mg3Nb": 7496,
      "Mg3Re": 7497,
      "Al3In": 7498,
      "Al3Cd4": 7499,
      "Al3VPb": 7500,
      "Fe3Au": 7501,
      "Fe3Bi": 7502,
      "Fe3Si": 7503,
      "Ca4Ta4": 7504,
      "Ca4Pt4": 7505,
      "P3Cl": 7506,
      "Cu3Se": 7507,
      "Cu3Ag3": 7508,
      "C2O": 7509,
      "C2H5": 7510,
      "Ag3B": 7511,
      "Ag3P": 7512,
      "Hg3Au4": 7513,
      "Ni3Al": 7514,
      "Ni3Nb": 7515,
      "Hf3As": 7516,
      "Ga3Cl": 7517,
      "Cd3In4": 7518,
      "Rh3C": 7519,
      "Sr4Mo3": 7520,
      "Ge3Sb": 7521,
      "Zr3In": 7522,
      "Zr3Ti": 7523,
      "Zr3Bi": 7524,
      "Zr3Ir": 7525,
      "Zr3In4": 7526,
      "Zr3Ni4": 7527,
      "Ti3Mn": 7528,
      "Ti3Bi": 7529,
      "Ti3Os": 7530,
      "Ti3Te": 7531,
      "Te3Au4": 7532,
      "Sn4Mo8": 7533,
      "Sn4W8": 7534,
      "Ta3Hg4": 7535,
      "Si3Ag4": 7536,
      "Nb3Br": 7537,
      "Nb3P4": 7538,
      "Sc3Tc": 7539,
      "Zr4Ga3": 7540,
      "Zr4Mo3": 7541,
      "Co3Sb": 7542,
      "V3Bi": 7543,
      "Tl3Cd": 7544,
      "Be3Ag": 7545,
      "Be3Tc": 7546,
      "Be3Cu4": 7547,
      "Bi4P3": 7548,
      "Bi4Rh3": 7549,
      "Fe4Al": 7550,
      "Fe4Sn": 7551,
      "Ir3O": 7552,
      "Ir3Ag": 7553,
      "Ir3As": 7554,
      "Mg4Hg": 7555,
      "Mg4Pd3": 7556,
      "Mg4Cu3": 7557,
      "Mg4Ta8": 7558,
      "Mg4VCo": 7559,
      "Mg4Cd8": 7560,
      "Ba4Re3": 7561,
      "Ba4Ag8": 7562,
      "Na4Mg": 7563,
      "Tc3Cu": 7564,
      "Tc3Pt4": 7565,
      "Cr3Pt": 7566,
      "Cr3Ga": 7567,
      "Hf4Cl4": 7568,
      "Sb4Cl": 7569,
      "Ru3Tl": 7570,
      "Sc4Tl3": 7571,
      "Nb4Au3": 7572,
      "Nb4Ag3": 7573,
      "Nb4B3": 7574,
      "In4P": 7575,
      "In4Pb": 7576,
      "In4Si": 7577,
      "In4As8": 7578,
      "Cd4Al": 7579,
      "Cd4Sn": 7580,
      "Cd4Pb3": 7581,
      "Ta4Rh3": 7582,
      "Ta4B3": 7583,
      "Tl4In": 7584,
      "Tl4Ni": 7585,
      "Tl4As": 7586,
      "Li4Nb8": 7587,
      "V4Cr3": 7588,
      "Cu4Sn": 7589,
      "Cu4Hg": 7590,
      "Cu4Sb": 7591,
      "Cu4Br": 7592,
      "Ni4Ag": 7593,
      "Pt4P": 7594,
      "Pt4Ge": 7595,
      "Mo4Os6": 7596,
      "Co4Ge": 7597,
      "Al4B": 7598,
      "Al4Sn": 7599,
      "Al4Tc4": 7600,
      "Hg4Te3": 7601,
      "Cr4Br": 7602,
      "ylidynearsane": 7603,
      "Ge4Sb3": 7604,
      "B4As3": 7605,
      "Si4Te": 7606,
      "Ga4Al": 7607,
      "Ga4Pb": 7608,
      "Ga4Bi": 7609,
      "TaNbMoC5": 7610,
      "selenohypobromous": 7611,
      "C3N": 7612,
      "Zn4B": 7613,
      "bismuthin": 7614,
      "bismuthanylidene": 7615,
      "bismuthanylidynenickel": 7616,
      "CaScAl2": 7617,
      "InAlSn": 7618,
      "HgZnIn": 7619,
      "AuCdTl": 7620,
      "AuCdZn": 7621,
      "Gd2Ru3": 7622,
      "Er2Pr": 7623,
      "CuHgSn": 7624,
      "TlGaBi": 7625,
      "AgZnIn": 7626,
      "TcOsIn": 7627,
      "CrMnSn": 7628,
      "CrMnBi": 7629,
      "RhZnTl": 7630,
      "RhZnGa": 7631,
      "AgInGa": 7632,
      "chlorplatin": 7633,
      "chlororhenium": 7634,
      "CdZnAl": 7635,
      "CdZnTl": 7636,
      "CdZnGa": 7637,
      "RhAuTl": 7638,
      "RhAuGa": 7639,
      "CuZnBi": 7640,
      "PtAuSn": 7641,
      "PtAuGa": 7642,
      "Rb2Tb": 7643,
      "Rb2Ac": 7644,
      "germanide": 7645,
      "FeRhBi": 7646,
      "Lu2Pr": 7647,
      "AuHgAl": 7648,
      "AuHgBi": 7649,
      "FeCdPb": 7650,
      "Nd2Ge": 7651,
      "WIrIn": 7652,
      "PtCdIn": 7653,
      "NiCdBi": 7654,
      "MoRhHg": 7655,
      "CrRhCd": 7656,
      "PtHgTl": 7657,
      "PdInBi": 7658,
      "SrSc1": 7659,
      "IrAgTl": 7660,
      "ylamine": 7661,
      "Mo6Os4": 7662,
      "IrHgBi": 7663,
      "Cs3Se": 7664,
      "Cs3Rb": 7665,
      "Li6W5": 7666,
      "YFeSn2": 7667,
      "Tc6P4": 7668,
      "YCuMg": 7669,
      "ZrAlSi2": 7670,
      "arsanide": 7671,
      "SnSbAu3": 7672,
      "Li5Mn4": 7673,
      "YRhIn2": 7674,
      "GeAsTe2": 7675,
      "LiBa2Sc": 7676,
      "H4F": 7677,
      "H4O2": 7678,
      "phosphinetelluride": 7679,
      "CNO3": 7680,
      "MgSc2Cl": 7681,
      "bromoarsine": 7682,
      "MgW2Te": 7683,
      "LiSnPb3": 7684,
      "mfcd058635": 7685,
      "Th3In": 7686,
      "Re5Os3": 7687,
      "Pt2Au1": 7688,
      "KSc2Pb": 7689,
      "Zr5Cu3": 7690,
      "12502": 7691,
      "Ti8Pt4": 7692,
      "BaLi3Pt": 7693,
      "AlCuTi": 7694,
      "La9Ti3": 7695,
      "As8Pd4": 7696,
      "In8Mo4": 7697,
      "12187": 7698,
      "39416": 7699,
      "39422": 7700,
      "La10Os4": 7701,
      "La10Mo4": 7702,
      "tellanylboron": 7703,
      "tellanylsodium": 7704,
      "TiWMoC3": 7705,
      "158929": 7706,
      "59393": 7707,
      "mghg": 7708,
      "nsc158929": 7709,
      "mfcd05863544": 7710,
      "+)": 7711,
      "169": 7712,
      "2Cd": 7713,
      "2ZnAl": 7714,
      "2ZnGe": 7715,
      "2ZnB": 7716,
      "2PdSi": 7717,
      "2GeP": 7718,
      "2ZnCo": 7719,
      "2BSn": 7720,
      "2PdGe": 7721,
      "2CuTe": 7722,
      "2FeSe": 7723,
      "2SnZn": 7724,
      "2AsZn": 7725,
      "2PCd": 7726,
      "2AgGe1": 7727,
      "6Ni": 7728,
      "616": 7729,
      "879": 7730,
      "BC3": 7731,
      "CBi": 7732,
      "CP2": 7733,
      "CO7": 7734,
      "CH5": 7735,
      "CHO": 7736,
      "H8": 7737,
      "HBr": 7738,
      "IO3": 7739,
      "KLa3": 7740,
      "KMn3": 7741,
      "KFe4": 7742,
      "KBr4": 7743,
      "KIr4": 7744,
      "KYSc": 7745,
      "KZrV": 7746,
      "KCoNi": 7747,
      "KTh2": 7748,
      "KHfFe": 7749,
      "KYMo": 7750,
      "KNbCr": 7751,
      "KTiMo": 7752,
      "KPd2Bi": 7753,
      "NF": 7754,
      "Ne": 7755,
      "NTi5": 7756,
      "NY6": 7757,
      "NDy6": 7758,
      "O20": 7759,
      "O27": 7760,
      "PP": 7761,
      "PS": 7762,
      "SF": 7763,
      "SAs": 7764,
      "V1": 7765,
      "VSe3": 7766,
      "VAl3": 7767,
      "VGa3": 7768,
      "VOs4": 7769,
      "VV4": 7770,
      "VW4": 7771,
      "VMo4": 7772,
      "WIn2": 7773,
      "WSi2": 7774,
      "WTl4": 7775,
      "WMo4": 7776,
      "WTcPd": 7777,
      "WPd6": 7778,
      "YC": 7779,
      "YBr": 7780,
      "YO3": 7781,
      "YSn3": 7782,
      "YTa4": 7783,
      "YTl4": 7784,
      "YRe3": 7785,
      "YNi4": 7786,
      "YRh4": 7787,
      "YNbW": 7788,
      "YWTc": 7789,
      "YWOs": 7790,
      "YMoRe": 7791,
      "YRuCo": 7792,
      "YY6": 7793,
      "YZnP": 7794,
      "YCu2In": 7795,
      "ganylidyne": 7796,
      "iodi": 7797,
      "q15": 7798,
      "thio": 7799,
      "omer": 7800,
      "InCu": 7801,
      "InBi2": 7802,
      "InPd2": 7803,
      "InY3": 7804,
      "InAl3": 7805,
      "InAs3": 7806,
      "InPb2Se": 7807,
      "Al9": 7808,
      "AlCu2": 7809,
      "AlY4": 7810,
      "AlBr3": 7811,
      "AlSi3": 7812,
      "AlBr4": 7813,
      "Mg17": 7814,
      "MgNd": 7815,
      "MgNp": 7816,
      "MgHo": 7817,
      "MgZn2": 7818,
      "MgLa4": 7819,
      "MgSn3": 7820,
      "MgTe3": 7821,
      "MgSb3": 7822,
      "MgO4": 7823,
      "MgHf4": 7824,
      "MgTl4": 7825,
      "MgCl4": 7826,
      "MgYSc": 7827,
      "MgYTi": 7828,
      "MgTm2": 7829,
      "MgAg2Ga": 7830,
      "MgMg7": 7831,
      "MgMg2Cu": 7832,
      "Co8": 7833,
      "CoN": 7834,
      "CoK3": 7835,
      "CoK4": 7836,
      "CoCl3": 7837,
      "CoO4": 7838,
      "CoB4": 7839,
      "ZrN": 7840,
      "ZrO": 7841,
      "ZrSn2": 7842,
      "ZrPb2": 7843,
      "ZrAl2": 7844,
      "ZrCo2": 7845,
      "ZrZn2": 7846,
      "ZrP3": 7847,
      "ZrTa3": 7848,
      "ZrV3": 7849,
      "ZrV4": 7850,
      "ZrNbV": 7851,
      "ZrNiAl": 7852,
      "CuIn2": 7853,
      "CuCd2": 7854,
      "CuSb2": 7855,
      "CuC2": 7856,
      "CuCd3": 7857,
      "CuBi4": 7858,
      "TiH": 7859,
      "TiPb4": 7860,
      "TiB3": 7861,
      "TiMo4": 7862,
      "TiRu4": 7863,
      "TiNbV": 7864,
      "FeC": 7865,
      "FeH": 7866,
      "FeAg2": 7867,
      "FeHg3": 7868,
      "FeNi3": 7869,
      "FeSb3": 7870,
      "FeV3": 7871,
      "FeF2": 7872,
      "ofluor": 7873,
      "HfAu3": 7874,
      "HfP3": 7875,
      "HfC2": 7876,
      "HfW3": 7877,
      "HfTa4": 7878,
      "HfMn4": 7879,
      "HfTc4": 7880,
      "HfNbW": 7881,
      "HfTcCo": 7882,
      "HfVTc": 7883,
      "HfRuCd": 7884,
      "HfBi2Te": 7885,
      "HfAu2P": 7886,
      "NiCu2": 7887,
      "NiO2": 7888,
      "NiZn3": 7889,
      "NiB3": 7890,
      "NiVAl": 7891,
      "Nitride": 7892,
      "NbAg2": 7893,
      "NbPt2": 7894,
      "NbBr3": 7895,
      "NbW3": 7896,
      "NbBi4": 7897,
      "NbO4": 7898,
      "NbNb4": 7899,
      "NbRe4": 7900,
      "NbTcIr": 7901,
      "LaO3": 7902,
      "LaGe2": 7903,
      "LaMg3": 7904,
      "LaMo3": 7905,
      "LaPt4": 7906,
      "LaNbV": 7907,
      "LaWRe": 7908,
      "LaSiP": 7909,
      "TaPd2": 7910,
      "TaAs2": 7911,
      "TaBi3": 7912,
      "TaCd3": 7913,
      "TaRe3": 7914,
      "TaIr4": 7915,
      "TaReIr": 7916,
      "Sn1": 7917,
      "SnNa4": 7918,
      "PdHg3": 7919,
      "PdCd3": 7920,
      "CaTm": 7921,
      "CaTb": 7922,
      "CaAu3": 7923,
      "CaBi3": 7924,
      "CaPd3": 7925,
      "CaHf3": 7926,
      "CaNb3": 7927,
      "CaZr4": 7928,
      "CaV4": 7929,
      "CaHfTi": 7930,
      "CaLaY": 7931,
      "CaGd2": 7932,
      "CaNbRe": 7933,
      "CaAgZn": 7934,
      "CaSm2": 7935,
      "CaCoPt": 7936,
      "CaU2": 7937,
      "CaSrCa5": 7938,
      "ScBe": 7939,
      "ScCo2": 7940,
      "ScBr3": 7941,
      "ScMn3": 7942,
      "ScOs4": 7943,
      "ScRe3": 7944,
      "ScBr4": 7945,
      "ScTaNb": 7946,
      "ScPtPd": 7947,
      "ScTiTc": 7948,
      "ScCoCd": 7949,
      "Li15": 7950,
      "LiPt2": 7951,
      "LiIr2": 7952,
      "LiLa4": 7953,
      "LiPb3": 7954,
      "LiTi3": 7955,
      "LiSc3": 7956,
      "LiSb3": 7957,
      "LiMn4": 7958,
      "LiHfZr": 7959,
      "LiYSc": 7960,
      "LiScTa": 7961,
      "LiLaTi": 7962,
      "LiCe2": 7963,
      "LiNp2": 7964,
      "LiCaZr": 7965,
      "LiCaY": 7966,
      "LiYMo": 7967,
      "LiHfCo": 7968,
      "PtCl6": 7969,
      "AgAs2": 7970,
      "AgFe3": 7971,
      "AgSn4": 7972,
      "PbP3": 7973,
      "CdGa2": 7974,
      "CdLa3": 7975,
      "CdIn3": 7976,
      "CdMo3": 7977,
      "CdB3": 7978,
      "Sr11": 7979,
      "SrNp": 7980,
      "SrTb": 7981,
      "SrAl3": 7982,
      "SrC2": 7983,
      "SrAg3": 7984,
      "SrIn3": 7985,
      "SrTi4": 7986,
      "SrMn4": 7987,
      "SrMo4": 7988,
      "SrBe4": 7989,
      "SrYHf": 7990,
      "SrLaV": 7991,
      "SrTiRe": 7992,
      "SrTiTa": 7993,
      "SrNbTc": 7994,
      "SrRhCo": 7995,
      "Mn9": 7996,
      "MnK3": 7997,
      "MnNa3": 7998,
      "MnCo4": 7999,
      "MnMn6": 8000,
      "MnCO3": 8001,
      "AuBr2": 8002,
      "AuBa3": 8003,
      "AuZn3": 8004,
      "AuTa3": 8005,
      "RhGe2": 8006,
      "RhZn3": 8007,
      "RhCd3": 8008,
      "RhIn2Sb": 8009,
      "BaNa": 8010,
      "BaHo": 8011,
      "BaTh": 8012,
      "BaO2": 8013,
      "BaBi3": 8014,
      "BaCu3": 8015,
      "BaHf3": 8016,
      "BaTi4": 8017,
      "BaYSc": 8018,
      "BaCaSc": 8019,
      "BaNbMo": 8020,
      "BaNbCo": 8021,
      "BaTiRe": 8022,
      "BaPa2": 8023,
      "BaCrRu": 8024,
      "BaNbRu": 8025,
      "BaHfNb": 8026,
      "BaHfW": 8027,
      "BaF6": 8028,
      "BiCa3": 8029,
      "BiY3": 8030,
      "BiMg3": 8031,
      "BiAlO3": 8032,
      "MoReOs": 8033,
      "NaCd3": 8034,
      "NaAs3": 8035,
      "NaIr3": 8036,
      "NaSc4": 8037,
      "NaCo4": 8038,
      "NaHg4": 8039,
      "NaLaZr": 8040,
      "NaNbMo": 8041,
      "NaLaHf": 8042,
      "NaNbRe": 8043,
      "NaZrTa": 8044,
      "NaYCr": 8045,
      "NaBeSc": 8046,
      "NaHfTc": 8047,
      "NaHfW": 8048,
      "NaHfMn": 8049,
      "TlBa": 8050,
      "TlY3": 8051,
      "TlZn3": 8052,
      "TlAg3": 8053,
      "TlSi3": 8054,
      "Zn7": 8055,
      "ZnMn": 8056,
      "ZnAl3": 8057,
      "ZnBr3": 8058,
      "ZnHf3": 8059,
      "ZnC3": 8060,
      "ZnCu3Bi": 8061,
      "RuPb3": 8062,
      "RuMg3": 8063,
      "RuCd3": 8064,
      "RuO4": 8065,
      "RuCo4": 8066,
      "IrK3": 8067,
      "IrPt3": 8068,
      "IrB2Si": 8069,
      "TcBi3": 8070,
      "TcPd3": 8071,
      "TcSe3": 8072,
      "TcMn4": 8073,
      "Hg7": 8074,
      "HgC": 8075,
      "HgO3": 8076,
      "HgSr3": 8077,
      "HgW3": 8078,
      "OsNa3": 8079,
      "OsSn3": 8080,
      "OsBr3": 8081,
      "OsIr3": 8082,
      "OsMg6": 8083,
      "ReIn2": 8084,
      "RePt2": 8085,
      "ReO2": 8086,
      "ReTc3": 8087,
      "ReRh4": 8088,
      "ReAu2Al": 8089,
      "CrSi2": 8090,
      "CrPb3": 8091,
      "CrNi3": 8092,
      "CrGa3": 8093,
      "CrMn3": 8094,
      "CrSi3": 8095,
      "CrFe4": 8096,
      "CrCd2Br": 8097,
      "GaO": 8098,
      "GaGa": 8099,
      "GaPb2": 8100,
      "GaK3": 8101,
      "GaTe4": 8102,
      "SiN": 8103,
      "BeCe": 8104,
      "BeNi2": 8105,
      "BePd3": 8106,
      "BeNi3": 8107,
      "BeCd3": 8108,
      "BeMo3": 8109,
      "BeW3": 8110,
      "BeFe4": 8111,
      "BeIr3": 8112,
      "BeCr3": 8113,
      "BeRu3": 8114,
      "BeNb4": 8115,
      "BeTa4": 8116,
      "BeW4": 8117,
      "BeMo4": 8118,
      "BeIr4": 8119,
      "BeYSc": 8120,
      "BeScHf": 8121,
      "BeHfW": 8122,
      "BeTiHg": 8123,
      "BeSb6": 8124,
      "SbLi3": 8125,
      "SbSe3": 8126,
      "SbV3": 8127,
      "SbSb4": 8128,
      "SbSb5": 8129,
      "TeAu3": 8130,
      "TePb3": 8131,
      "GePb": 8132,
      "GeSe2": 8133,
      "GeSr4": 8134,
      "SeNb3": 8135,
      "AsCa4": 8136,
      "AsCl3": 8137,
      "AsBr4": 8138,
      "BrK4": 8139,
      "BrAg4": 8140,
      "BrCu6": 8141,
      "ClLa4": 8142,
      "ClPb4": 8143,
      "ClRb4": 8144,
      "monomer": 8145,
      "monophosphide": 8146,
      "123": 8147,
      "1306": 8148,
      "1354": 8149,
      "8369": 8150,
      "RbF": 8151,
      "RbCo": 8152,
      "RbRh": 8153,
      "RbRu": 8154,
      "RbCl4": 8155,
      "025": 8156,
      "CsSr": 8157,
      "CsCr": 8158,
      "CsNi3": 8159,
      "CsSc3": 8160,
      "CsGd2": 8161,
      "CsPu2": 8162,
      "CePd": 8163,
      "ErN": 8164,
      "ErZn": 8165,
      "ErCe2": 8166,
      "SmV": 8167,
      "SmCo": 8168,
      "SmB2": 8169,
      "DyLa2": 8170,
      "DyNb2": 8171,
      "GdSe": 8172,
      "GdO3": 8173,
      "GdLa2": 8174,
      "GdW2": 8175,
      "NdCu": 8176,
      "628369": 8177,
      "Np6": 8178,
      "NpIr": 8179,
      "NpDy": 8180,
      "HoN": 8181,
      "HoGd": 8182,
      "HoEu": 8183,
      "LuW2": 8184,
      "LuGd2": 8185,
      "TmNd": 8186,
      "PuPt": 8187,
      "PuTc": 8188,
      "PuBe": 8189,
      "PuTm": 8190,
      "PuPa": 8191,
      "PuNb2": 8192,
      "PuEr2": 8193,
      "PuU2": 8194,
      "PaMn": 8195,
      "PaEu": 8196,
      "EuCe": 8197,
      "12016": 8198,
      "PmO3": 8199,
      "PrY": 8200,
      "PrAu": 8201,
      "PrRe": 8202,
      "PrCu2": 8203,
      "YbO3": 8204,
      "YbEr2": 8205,
      "TbTa": 8206,
      "TbGd2": 8207,
      "TbCe2": 8208,
      "Ba2Tm": 8209,
      "Ba2HgGa": 8210,
      "Ba2TcAu": 8211,
      "Ba2MgCo": 8212,
      "Ba2RuB": 8213,
      "Ba2MoNi": 8214,
      "Zr2In": 8215,
      "Zr2Cu": 8216,
      "Zr2Sn": 8217,
      "Zr2SbP": 8218,
      "Zr2CrSn": 8219,
      "Zr2MoSi": 8220,
      "Sr2Ti": 8221,
      "Sr2TcPt": 8222,
      "Mg2Zn": 8223,
      "Mg2Sb": 8224,
      "Mg2MnRh": 8225,
      "La2Cu": 8226,
      "La2Sc": 8227,
      "La2PtCl": 8228,
      "K2Si": 8229,
      "K2Pa": 8230,
      "K2O2": 8231,
      "K2HfSn": 8232,
      "K2CoBr": 8233,
      "K2ScBr": 8234,
      "Bi2Mg": 8235,
      "Bi2O4": 8236,
      "Tl2BiCl": 8237,
      "Nb2Pd": 8238,
      "Sc2Hg": 8239,
      "Sc2Se": 8240,
      "Sc2Cl": 8241,
      "Sc2Re4": 8242,
      "Ti2V": 8243,
      "Ti2Cu": 8244,
      "Ti2Ta": 8245,
      "Ti2Tc": 8246,
      "Ti2Sb": 8247,
      "Ti2HgTl": 8248,
      "Hf2Pd": 8249,
      "Al2Mo": 8250,
      "Li2Cu": 8251,
      "Li2Pd": 8252,
      "Li2Mn": 8253,
      "Li2Sm": 8254,
      "Li2AsBr": 8255,
      "Li2MoGa": 8256,
      "Li2AgBr": 8257,
      "Y2CrAl": 8258,
      "Y2GaBr": 8259,
      "Y2VBr": 8260,
      "Fe2Na": 8261,
      "Cu2S": 8262,
      "Cu2GeP": 8263,
      "Na2U": 8264,
      "Na2Pt": 8265,
      "Na2ZrSe": 8266,
      "Ag2InSb": 8267,
      "V2Mn": 8268,
      "V2Bi": 8269,
      "V2Cr": 8270,
      "V2Te": 8271,
      "V2ReAu": 8272,
      "V2PdSn": 8273,
      "Pd2PbCl": 8274,
      "Ca2CdZn": 8275,
      "Ca2CdPb": 8276,
      "Ta2In": 8277,
      "Ta2Pd": 8278,
      "Ta2Mo": 8279,
      "Ta2Sb": 8280,
      "W2Fe": 8281,
      "W2Pb": 8282,
      "phosphid": 8283,
      "phosphanylidynerhenium": 8284,
      "phosphanylidynenickel": 8285,
      "Mn2Tl": 8286,
      "Hg2PbBr": 8287,
      "Hg2GaBr": 8288,
      "N2O": 8289,
      "Co2V": 8290,
      "Co2Si3": 8291,
      "Se2Te": 8292,
      "As2TeSe": 8293,
      "Mo2AuIn": 8294,
      "Zn2S": 8295,
      "Cr2Pb": 8296,
      "Cr2Ge": 8297,
      "B2C2": 8298,
      "Ru2FePt": 8299,
      "Be2Zr": 8300,
      "Tc2Pb": 8301,
      "Tc2Rh": 8302,
      "Ba3Cu": 8303,
      "Ba3Na": 8304,
      "K3P": 8305,
      "K3Mn": 8306,
      "K3Hf4": 8307,
      "K3B4": 8308,
      "Sr3Se": 8309,
      "La4Ga3": 8310,
      "La4Sb3": 8311,
      "La4Y8": 8312,
      "La4Y4Zr4": 8313,
      "Ca3Pb": 8314,
      "Ca3Ti4": 8315,
      "Pb3P": 8316,
      "Y4Pb": 8317,
      "Y4Rh3": 8318,
      "Y4Ti3": 8319,
      "Y4Tl3": 8320,
      "Y4Be3": 8321,
      "Y4Tc3": 8322,
      "Li3Si": 8323,
      "Li3Pb2": 8324,
      "Li3Te2": 8325,
      "Na3Ru": 8326,
      "Na3Be": 8327,
      "Na3Se": 8328,
      "Na3Sc4": 8329,
      "Na3SrCd": 8330,
      "K4Ta3": 8331,
      "K4Ag4": 8332,
      "hydra": 8333,
      "Mg3Co": 8334,
      "Mg3Au": 8335,
      "Mg3Ru": 8336,
      "Mg3Ga": 8337,
      "Mg3Se": 8338,
      "Mg3Br": 8339,
      "Mg3TlSn": 8340,
      "Al3Hf": 8341,
      "Fe3In": 8342,
      "Fe3Ni": 8343,
      "Fe3Zn": 8344,
      "Fe3Si2": 8345,
      "Ca4Pb3": 8346,
      "Ca4Ag3": 8347,
      "Ca4Pt3": 8348,
      "Ca4Si3": 8349,
      "Ca4Ag4": 8350,
      "P3Au3": 8351,
      "P3Au4": 8352,
      "Zn3N": 8353,
      "Zn3In": 8354,
      "Zn3Mo5": 8355,
      "Cu3Hg": 8356,
      "Cu3Si3": 8357,
      "Cu3Re3": 8358,
      "C2NH6": 8359,
      "Ag3Zn": 8360,
      "Ag3Ga": 8361,
      "Hg3Cd": 8362,
      "Ni3V": 8363,
      "Ni3Br": 8364,
      "Ni3Mo6": 8365,
      "Hf3Al": 8366,
      "Hf3Zr": 8367,
      "Hf3Ag": 8368,
      "Hf3Pb": 8369,
      "Hf3Mo": 8370,
      "Hf3Ga": 8371,
      "Ga3As": 8372,
      "Ga3Co3": 8373,
      "Pt3Cr": 8374,
      "Pt3Rh3": 8375,
      "Cd3Br": 8376,
      "Rh3Ga": 8377,
      "Mn3P": 8378,
      "Mn3In2": 8379,
      "Mn3Co4": 8380,
      "In3B": 8381,
      "In3Si": 8382,
      "In3Sn4": 8383,
      "Sr4Pt3": 8384,
      "Ge3Bi": 8385,
      "Ge3Te2": 8386,
      "Ge3P4": 8387,
      "Zr3Al": 8388,
      "Zr3Sb": 8389,
      "Zr3Ge": 8390,
      "Zr3Pb4": 8391,
      "Zr3TeBr": 8392,
      "Ti3Rh3": 8393,
      "Sn4Bi": 8394,
      "Ta3Ni": 8395,
      "Ta3Ru": 8396,
      "Ta3Sb": 8397,
      "Si3Bi": 8398,
      "Si3Sb": 8399,
      "Nb3Br4": 8400,
      "Mo3Au": 8401,
      "Mo3Br": 8402,
      "Sc3W": 8403,
      "Sc3Ge": 8404,
      "Sc3Si9": 8405,
      "Zr4Sn3": 8406,
      "Zr4Ta3": 8407,
      "Zr4Sc4": 8408,
      "Co3Ga": 8409,
      "B3C": 8410,
      "B3O": 8411,
      "V3Mo": 8412,
      "W3Hg": 8413,
      "Tl3Zn": 8414,
      "Tl3Hg": 8415,
      "Tl3Ge": 8416,
      "Tl3Cl": 8417,
      "Be3Tl": 8418,
      "Be3Ir": 8419,
      "Be3Re": 8420,
      "Be3P4": 8421,
      "Be3Tc4": 8422,
      "Fe4Hg": 8423,
      "Os3Sb": 8424,
      "Os3Pd3": 8425,
      "Ba4Sc4": 8426,
      "Na4Li3": 8427,
      "Na4Sn3": 8428,
      "Na4As3": 8429,
      "Tc3Bi": 8430,
      "Tc3Bi4": 8431,
      "Tc3HgPb": 8432,
      "Hf4Te": 8433,
      "Hf4Sn3": 8434,
      "Hf4Sb3": 8435,
      "Sb4Te": 8436,
      "Sc4Zn3": 8437,
      "Sc4Ti4": 8438,
      "Nb4Cd3": 8439,
      "Nb4In3": 8440,
      "Nb4Pb4": 8441,
      "Ti4Co3": 8442,
      "Ti4Fe4": 8443,
      "In4As": 8444,
      "Cd4Te": 8445,
      "Cd4Te3": 8446,
      "Ta4Mn2": 8447,
      "Tl4Sb": 8448,
      "Re3C": 8449,
      "Re3Tl": 8450,
      "Re3Hg": 8451,
      "Pd4In": 8452,
      "Pd4Sn": 8453,
      "Mn4B4": 8454,
      "Cu4B": 8455,
      "Ni4P": 8456,
      "Ni4B3": 8457,
      "Al4Se": 8458,
      "Al4As": 8459,
      "Al4Ni3": 8460,
      "Al4Tc5": 8461,
      "Ag4Sn": 8462,
      "Hg4P3": 8463,
      "Ir4P": 8464,
      "Au4B": 8465,
      "Au4Te": 8466,
      "Ge4B3": 8467,
      "Si4O9": 8468,
      "Tc4P6": 8469,
      "As4Se": 8470,
      "CaMg6": 8471,
      "NaSrSc2": 8472,
      "Be4Fe3": 8473,
      "C3P": 8474,
      "Zn4Pb3": 8475,
      "PtPdSn": 8476,
      "BaMgIn2": 8477,
      "LiSrLa2": 8478,
      "Gd2B3": 8479,
      "PdCdBi": 8480,
      "Er2Sm": 8481,
      "CuAlSn": 8482,
      "PtNiPb": 8483,
      "PtNiTl": 8484,
      "AgHgIn": 8485,
      "AgHgTl": 8486,
      "CrMnIn": 8487,
      "RuNiPb": 8488,
      "GaBiSe2": 8489,
      "AuInGa": 8490,
      "RhZnSn": 8491,
      "AgInPb": 8492,
      "RhPdPb": 8493,
      "CuSnBi3": 8494,
      "KMg30": 8495,
      "platintelluride": 8496,
      "WTcAu": 8497,
      "HgInSn": 8498,
      "AlPbSb2": 8499,
      "PtAuZn": 8500,
      "N3HO": 8501,
      "FeIrTl": 8502,
      "Np2Ce": 8503,
      "Np2Lu": 8504,
      "PdNiTl": 8505,
      "Rb2Mg": 8506,
      "PdHgAl": 8507,
      "PdHgGa": 8508,
      "ZnInSn": 8509,
      "ZnInPb": 8510,
      "Lu2Dy": 8511,
      "TcIrAg": 8512,
      "KNaIr3": 8513,
      "FeCdSn": 8514,
      "AgCuGa": 8515,
      "TcRhHg": 8516,
      "HgCdPb": 8517,
      "HgCdGa": 8518,
      "GaAlSb2": 8519,
      "Tm2Ce": 8520,
      "Tm2Pr": 8521,
      "FeAgBi": 8522,
      "CoPtBi": 8523,
      "FePdBi": 8524,
      "ReTc6": 8525,
      "NiAuPb": 8526,
      "CaYHf2": 8527,
      "NiZnBi": 8528,
      "RhAgPb": 8529,
      "PtCdBi": 8530,
      "Th2Tm": 8531,
      "Th2Ac": 8532,
      "NiCdSn": 8533,
      "KLaBr": 8534,
      "PtZnTl": 8535,
      "AuTlAl": 8536,
      "MgLaGa2": 8537,
      "NbRhSn": 8538,
      "FeHgSn": 8539,
      "MnZnTl": 8540,
      "MnZnSn2": 8541,
      "NiSn6": 8542,
      "PdAlP": 8543,
      "PtHgGa": 8544,
      "PtHgIn2": 8545,
      "Rb3Pb": 8546,
      "RuIrCd": 8547,
      "CoCdTe2": 8548,
      "PdZnPb": 8549,
      "IrAgBi": 8550,
      "Cs2Tm": 8551,
      "Pu2Ho": 8552,
      "S2O": 8553,
      "CdTlAl": 8554,
      "Sc6Pd4": 8555,
      "RuHgBi": 8556,
      "AlSiAl": 8557,
      "AgBiTe2": 8558,
      "LaTcTe2": 8559,
      "Ti6Fe4": 8560,
      "MnInBi": 8561,
      "Fe6Tl": 8562,
      "ScWGe2": 8563,
      "MnTl6": 8564,
      "ZrRhBr": 8565,
      "YReSb2": 8566,
      "Re6Si4": 8567,
      "selanylidenetantalum": 8568,
      "selanylidenealuminum": 8569,
      "SnSbTe2": 8570,
      "lambda3": 8571,
      "K6Ca4": 8572,
      "Be6Au5": 8573,
      "SrPtPd2": 8574,
      "MgOsPb2": 8575,
      "RhCdCl2": 8576,
      "thorium": 8577,
      "MgCdBi3": 8578,
      "TlSiBr2": 8579,
      "PbCl5": 8580,
      "YCdGa2": 8581,
      "Be5Ga5": 8582,
      "LaZnSe2": 8583,
      "SrLa2V": 8584,
      "SrLa2Cu": 8585,
      "tellanyllithium": 8586,
      "tellanylidynearsane": 8587,
      "Mn5Rh5": 8588,
      "NaNa8": 8589,
      "ScSiAs2": 8590,
      "CNH3": 8591,
      "HfFe2Ga": 8592,
      "PbTiO3": 8593,
      "LaFe2Te": 8594,
      "kaliumphosphid": 8595,
      "SrAlO3": 8596,
      "SrAlCl2": 8597,
      "bromoosmium": 8598,
      "bromostannane": 8599,
      "NaCa2Pd": 8600,
      "CaW2Pb": 8601,
      "7727": 8602,
      "HfTi2Sb": 8603,
      "BaCa3Ti": 8604,
      "ZrTc2Cu": 8605,
      "ZrTeBr3": 8606,
      "WMo2Au": 8607,
      "Pr3Hf": 8608,
      "TcRu2Cd": 8609,
      "12032": 8610,
      "SrLi3V": 8611,
      "hydroxylamine": 8612,
      "Sr4Y4Ti4": 8613,
      "Sr4Y4In4": 8614,
      "Sr4Y4Tl4": 8615,
      "Sr4Y4Al4": 8616,
      "KInCl2": 8617,
      "RuIr2Br": 8618,
      "In3BiPt": 8619,
      "tellanylidenetantalum": 8620,
      "11148": 8621,
      "germanylideneantimony": 8622,
      "germanylidenetin": 8623,
      "indiganylidyne": 8624,
      "12006": 8625,
      "casi": 8626,
      "12141": 8627,
      "Sr4Ca4Ge4": 8628,
      "16949": 8629,
      "61642": 8630,
      "87933": 8631,
      "iodide": 8632,
      "q15628369": 8633,
      "135495": 8634,
      "Ba4Sc4In4": 8635,
      "indiganylidynebismuthane": 8636,
      "016": 8637,
      "110": 8638,
      "1Ni2": 8639,
      "2In": 8640,
      "290": 8641,
      "2PtPd": 8642,
      "2NiCu": 8643,
      "2PtZn": 8644,
      "2CoCu": 8645,
      "2AgTl": 8646,
      "2RhCu": 8647,
      "2CoOs": 8648,
      "2TcBi": 8649,
      "2OsBi": 8650,
      "2AlP": 8651,
      "2CdBr": 8652,
      "2BPb": 8653,
      "2PtOs": 8654,
      "2CuSe": 8655,
      "2CoSi": 8656,
      "2POs": 8657,
      "2SbRu": 8658,
      "2BiFe1": 8659,
      "8Zr4": 8660,
      "8Nb4": 8661,
      "8Zn4": 8662,
      "916": 8663,
      "9B3": 8664,
      "9W3": 8665,
      "BGe3": 8666,
      "BBa4": 8667,
      "BTl4": 8668,
      "CIn": 8669,
      "COs": 8670,
      "F12": 8671,
      "Graphite": 8672,
      "HCO": 8673,
      "IBr": 8674,
      "ICl3": 8675,
      "KEu": 8676,
      "KBa3": 8677,
      "KCa4": 8678,
      "KP3": 8679,
      "KIn3": 8680,
      "KSb3": 8681,
      "KBa4": 8682,
      "KNa4": 8683,
      "KSc4": 8684,
      "KCaMg": 8685,
      "KWMo": 8686,
      "KHfTi": 8687,
      "KNbV": 8688,
      "KLiSr": 8689,
      "KTcOs": 8690,
      "KScZr": 8691,
      "KHfTa": 8692,
      "KMnRh": 8693,
      "KVOs": 8694,
      "KHfMn": 8695,
      "KIrB": 8696,
      "KAl2Sn": 8697,
      "KB2Cl": 8698,
      "KBa3Pt": 8699,
      "Kren": 8700,
      "N1": 8701,
      "OIr3O": 8702,
      "PLa4": 8703,
      "PPb4": 8704,
      "PS4": 8705,
      "Ra": 8706,
      "SC": 8707,
      "SCl3": 8708,
      "SC1": 8709,
      "U6": 8710,
      "UCo": 8711,
      "UCr": 8712,
      "UEr": 8713,
      "UPu": 8714,
      "UTh": 8715,
      "ULa2": 8716,
      "UNb2": 8717,
      "UO2": 8718,
      "UPa2": 8719,
      "VK3": 8720,
      "VAu3": 8721,
      "VNa3": 8722,
      "VBi3": 8723,
      "VZn3": 8724,
      "VHg3": 8725,
      "VW3": 8726,
      "VRh4": 8727,
      "VRe4": 8728,
      "VHf6": 8729,
      "VNi2Zn": 8730,
      "WO": 8731,
      "WAs2": 8732,
      "WSr4": 8733,
      "WBi2Te": 8734,
      "YBa2": 8735,
      "YIn2": 8736,
      "YCo2": 8737,
      "YAg3": 8738,
      "YHf3": 8739,
      "YZr3": 8740,
      "YB3": 8741,
      "YW4": 8742,
      "YMo4": 8743,
      "YRu4": 8744,
      "YRe4": 8745,
      "YTc4": 8746,
      "YNbRe": 8747,
      "YReOs": 8748,
      "YMoOs": 8749,
      "YNiIn": 8750,
      "YNiB": 8751,
      "YN6": 8752,
      "YY5": 8753,
      "ak": 8754,
      "amide": 8755,
      "bo": 8756,
      "cyan": 8757,
      "dan": 8758,
      "dir": 8759,
      "h3": 8760,
      "hlor": 8761,
      "lap": 8762,
      "ohydride": 8763,
      "prop": 8764,
      "pofluor": 8765,
      "ssium": 8766,
      "ubidium": 8767,
      "zin": 8768,
      "gete": 8769,
      "omercury": 8770,
      "In7": 8771,
      "InK": 8772,
      "InSr3": 8773,
      "InSc3": 8774,
      "InSb3": 8775,
      "AlTl": 8776,
      "AlLi3": 8777,
      "AlY3": 8778,
      "AlCl3": 8779,
      "AlTe3": 8780,
      "AlO4": 8781,
      "trihydrate": 8782,
      "MgGd": 8783,
      "MgTm": 8784,
      "MgTh": 8785,
      "MgO3": 8786,
      "MgSn2": 8787,
      "MgAl2": 8788,
      "MgLi3": 8789,
      "MgNa3": 8790,
      "MgPd3": 8791,
      "MgP3": 8792,
      "MgAl4": 8793,
      "MgLaTa": 8794,
      "MgLaSc": 8795,
      "MgMoOs": 8796,
      "MgYCr": 8797,
      "MgCuZn": 8798,
      "MgMg5": 8799,
      "MgHfNb": 8800,
      "MgHfW": 8801,
      "MgHfIr": 8802,
      "MgOsRh": 8803,
      "MgHfOs": 8804,
      "MgSe6": 8805,
      "MgCu2Zn": 8806,
      "CoNi2": 8807,
      "CoHg3": 8808,
      "CoHf3": 8809,
      "CoZr3": 8810,
      "CoBa4": 8811,
      "CoBr4": 8812,
      "CoO5": 8813,
      "CoGa4": 8814,
      "ZrHf": 8815,
      "ZrBr3": 8816,
      "ZrTe3": 8817,
      "ZrSb3": 8818,
      "ZrRe4": 8819,
      "ZrWMo": 8820,
      "ZrNbW": 8821,
      "ZrCdZn": 8822,
      "ZrCrRe": 8823,
      "ZrTiOs": 8824,
      "ZrFeHg": 8825,
      "ZrSi2Te": 8826,
      "CuI": 8827,
      "CuTe2": 8828,
      "CuCa3": 8829,
      "CuHg3": 8830,
      "CuF4": 8831,
      "TiPd3": 8832,
      "TiBr3": 8833,
      "TiPt3": 8834,
      "TiTc4": 8835,
      "TiReOs": 8836,
      "TiWOs": 8837,
      "TiN5": 8838,
      "FeP2": 8839,
      "FeK3": 8840,
      "FeZr3": 8841,
      "FeTe3": 8842,
      "FeB2Br": 8843,
      "Hf9": 8844,
      "HfAl2": 8845,
      "HfCu2": 8846,
      "HfGe3": 8847,
      "HfCo3": 8848,
      "HfV3": 8849,
      "HfBi4": 8850,
      "HfO4": 8851,
      "HfRe4": 8852,
      "HfNbOs": 8853,
      "HfNbRu": 8854,
      "NiAl3": 8855,
      "NiHg3": 8856,
      "NiGa3": 8857,
      "NiZr3": 8858,
      "NiW3": 8859,
      "NiGa4": 8860,
      "NbSe2": 8861,
      "NbNi4": 8862,
      "LaAs2": 8863,
      "LaAl3": 8864,
      "LaAg3": 8865,
      "LaCd3": 8866,
      "LaTe3": 8867,
      "LaAs3": 8868,
      "LaCo3": 8869,
      "LaV3": 8870,
      "LaW3": 8871,
      "LaP4": 8872,
      "LaNi4": 8873,
      "LaNbMo": 8874,
      "LaCrMn": 8875,
      "LaFeIr": 8876,
      "LaTcIr": 8877,
      "LaNbRu": 8878,
      "LaReTc": 8879,
      "LaReIr": 8880,
      "LaAu2Si": 8881,
      "TaV3": 8882,
      "TaTc4": 8883,
      "TaFePt": 8884,
      "TaPd6": 8885,
      "SnN": 8886,
      "Sn13": 8887,
      "SnLi3": 8888,
      "SnMg3": 8889,
      "SnCl3": 8890,
      "SnZr3": 8891,
      "SnZr4": 8892,
      "SnSe4": 8893,
      "Pd9": 8894,
      "PdBi2": 8895,
      "PdGa2": 8896,
      "PdBa3": 8897,
      "PdK3": 8898,
      "PdLa4": 8899,
      "PdSe3": 8900,
      "PdCu3": 8901,
      "PdNi3": 8902,
      "PdGe3": 8903,
      "PdTa3": 8904,
      "PdBr4": 8905,
      "CaI": 8906,
      "CaS": 8907,
      "CaAc": 8908,
      "CaLi2": 8909,
      "CaSb2": 8910,
      "CaP3": 8911,
      "CaMn3": 8912,
      "CaSc4": 8913,
      "CaLaZr": 8914,
      "CaPdCd": 8915,
      "CaLaHf": 8916,
      "CaAgHg": 8917,
      "CaReOs": 8918,
      "CaNp2": 8919,
      "CaHfTa": 8920,
      "CaHfRe": 8921,
      "CaNbTc": 8922,
      "CaPm2": 8923,
      "ScPd2": 8924,
      "ScZn2": 8925,
      "ScK3": 8926,
      "ScPb3": 8927,
      "ScNi3": 8928,
      "ScTa3": 8929,
      "ScIr3": 8930,
      "ScV4": 8931,
      "ScZrV": 8932,
      "ScNbRe": 8933,
      "ScTiRe": 8934,
      "LiPa": 8935,
      "LiEu": 8936,
      "LiAg2": 8937,
      "LiSr3": 8938,
      "LiY4": 8939,
      "LiBi3": 8940,
      "LiRh3": 8941,
      "LiSr4": 8942,
      "LiV3": 8943,
      "LiOs3": 8944,
      "LiHf4": 8945,
      "LiOs4": 8946,
      "LiV4": 8947,
      "LiRh4": 8948,
      "LiYHf": 8949,
      "LiNbW": 8950,
      "LiScHf": 8951,
      "LiGd2": 8952,
      "LiZrV": 8953,
      "LiEr2": 8954,
      "LiZrTa": 8955,
      "LiCaBe": 8956,
      "LiHfTa": 8957,
      "LiBeSc": 8958,
      "LiCaTi": 8959,
      "LiNd2": 8960,
      "LiHfV": 8961,
      "LiBeLa": 8962,
      "LiBeY": 8963,
      "LiHfCr": 8964,
      "LiIn6": 8965,
      "LiSbBr": 8966,
      "LiSn2As": 8967,
      "PtIn2": 8968,
      "PtSi2": 8969,
      "PtAg2": 8970,
      "PtB2": 8971,
      "PtCd3": 8972,
      "PtIn3": 8973,
      "Ag9": 8974,
      "AgPb2": 8975,
      "AgTl2": 8976,
      "AgSb2": 8977,
      "AgB3": 8978,
      "AgV3": 8979,
      "AgCr3": 8980,
      "AgHg4": 8981,
      "AgPb2Se": 8982,
      "PbP2": 8983,
      "PbAs2": 8984,
      "PbBa3": 8985,
      "PbW3": 8986,
      "PbRh6": 8987,
      "CdS": 8988,
      "CdTl2": 8989,
      "CdTe2": 8990,
      "CdCa4": 8991,
      "CdBr3": 8992,
      "CdSi3": 8993,
      "CdIn4": 8994,
      "CdCd4": 8995,
      "CdTl2Ga": 8996,
      "SrNd": 8997,
      "SrAc": 8998,
      "SrPt2": 8999,
      "SrP2": 9000,
      "SrLa4": 9001,
      "SrZr3": 9002,
      "SrTe3": 9003,
      "SrW3": 9004,
      "SrCr3": 9005,
      "SrTa4": 9006,
      "SrAg4": 9007,
      "SrYZr": 9008,
      "SrNbW": 9009,
      "SrNbV": 9010,
      "SrReOs": 9011,
      "SrNbOs": 9012,
      "SrNbCo": 9013,
      "SrScZr": 9014,
      "SrHfTa": 9015,
      "SrHfNb": 9016,
      "SrWIr": 9017,
      "SrReIr": 9018,
      "MnIn2": 9019,
      "MnZn2": 9020,
      "MnRh2": 9021,
      "MnBi3": 9022,
      "MnW3": 9023,
      "MnOs3": 9024,
      "MnGa4": 9025,
      "AuAl2": 9026,
      "AuHg2": 9027,
      "AuBi3": 9028,
      "AuHg3": 9029,
      "AuCl3": 9030,
      "AuPb4": 9031,
      "RhTe2": 9032,
      "RhAu2": 9033,
      "RhCd2": 9034,
      "RhAg2": 9035,
      "RhHg3": 9036,
      "Rh1Ni2": 9037,
      "Ba7": 9038,
      "BaDy": 9039,
      "BaPu": 9040,
      "BaPr": 9041,
      "BaAl2": 9042,
      "BaTe2": 9043,
      "BaSb2": 9044,
      "BaLa4": 9045,
      "BaY4": 9046,
      "BaZn3": 9047,
      "BaHg3": 9048,
      "BaGa3": 9049,
      "BaSr4": 9050,
      "BaCo3": 9051,
      "BaV4": 9052,
      "BaCo4": 9053,
      "BaRu4": 9054,
      "BaCaMg": 9055,
      "BaHfZr": 9056,
      "BaTcRu": 9057,
      "BaHfTa": 9058,
      "BaCrRe": 9059,
      "BaHfTc": 9060,
      "BaScOs": 9061,
      "BaHfCr": 9062,
      "BaYW": 9063,
      "BaHfIr": 9064,
      "BaNbCr": 9065,
      "BaB2P": 9066,
      "BaIn2Ga": 9067,
      "BaSn2Ge": 9068,
      "BaCO3": 9069,
      "BaIn2Ge": 9070,
      "BiTe2": 9071,
      "BiSe2": 9072,
      "BiTe3": 9073,
      "BiSc3": 9074,
      "BiW3": 9075,
      "MoTl2": 9076,
      "MoBa3": 9077,
      "MoK3": 9078,
      "MoO2": 9079,
      "MoNa3": 9080,
      "MoK4": 9081,
      "MoGa3": 9082,
      "MoMn3": 9083,
      "NaRb": 9084,
      "NaFe3": 9085,
      "NaSr4": 9086,
      "NaZr4": 9087,
      "NaW3": 9088,
      "NaHf4": 9089,
      "NaV4": 9090,
      "NaWMo": 9091,
      "NaNbV": 9092,
      "NaZrV": 9093,
      "NaYTa": 9094,
      "NaTiTa": 9095,
      "NaLu2": 9096,
      "NaHfNb": 9097,
      "NaFeCo": 9098,
      "NaReIr": 9099,
      "NaHfIr": 9100,
      "NaAlSi": 9101,
      "TlN": 9102,
      "Tl24": 9103,
      "TlSn2": 9104,
      "TlPd3": 9105,
      "TlLa3": 9106,
      "TlRe3": 9107,
      "ZnF": 9108,
      "ZnZr2": 9109,
      "ZnSb2": 9110,
      "ZnGa2": 9111,
      "ZnIn2Al": 9112,
      "ZnIn2Br": 9113,
      "RuC": 9114,
      "RuIn2": 9115,
      "RuK4": 9116,
      "RuFe3": 9117,
      "RuCl3": 9118,
      "RuSi3": 9119,
      "RuBi4": 9120,
      "IrH": 9121,
      "IrGa2": 9122,
      "IrAu3": 9123,
      "IrNa3": 9124,
      "IrGe3": 9125,
      "IrPb4": 9126,
      "IrTe3": 9127,
      "IrTa3": 9128,
      "IrAs3": 9129,
      "IrBa4": 9130,
      "IrSi4": 9131,
      "IrGa2Br": 9132,
      "TcSn2": 9133,
      "TcGa2": 9134,
      "TcSr3": 9135,
      "TcMn3": 9136,
      "TcSr4": 9137,
      "TcOs4": 9138,
      "TcRh4": 9139,
      "HgTl2": 9140,
      "HgMn3": 9141,
      "HgZr4": 9142,
      "HgC3": 9143,
      "HgS2": 9144,
      "OsN": 9145,
      "OsCu2": 9146,
      "OsO2": 9147,
      "OsLa4": 9148,
      "OsAl3": 9149,
      "OsNi3": 9150,
      "OsCl3": 9151,
      "OsZr3": 9152,
      "OsAg4": 9153,
      "OsRh4": 9154,
      "OsOs6": 9155,
      "Re7": 9156,
      "ReCa4": 9157,
      "ReCu3": 9158,
      "ReCd4": 9159,
      "RePb2Sb": 9160,
      "Cr7": 9161,
      "CrBr3": 9162,
      "CrGe3": 9163,
      "CrIr4": 9164,
      "CrRe4": 9165,
      "CrZn4": 9166,
      "CrC4": 9167,
      "CrSi2P": 9168,
      "Ga9": 9169,
      "GaSn2": 9170,
      "GaBi2": 9171,
      "GaSb2": 9172,
      "GaBa3": 9173,
      "GaMn3": 9174,
      "SiCl2": 9175,
      "SiK4": 9176,
      "SiSe3": 9177,
      "SiSb3": 9178,
      "BeNp": 9179,
      "BeK3": 9180,
      "BeK4": 9181,
      "BeP3": 9182,
      "BeSr4": 9183,
      "BeTa3": 9184,
      "BeSc3": 9185,
      "BePd4": 9186,
      "BeTe4": 9187,
      "BeBe4": 9188,
      "BeYHf": 9189,
      "BeEr2": 9190,
      "BeLaV": 9191,
      "BePa2": 9192,
      "BeLu2": 9193,
      "BeCo2Ga": 9194,
      "SbAs2": 9195,
      "SbO4": 9196,
      "SbSc4": 9197,
      "SbAs4": 9198,
      "SbCa3Sb": 9199,
      "TeNb3": 9200,
      "GeGe": 9201,
      "GeMg3": 9202,
      "GeC2": 9203,
      "GeBr4": 9204,
      "SeC": 9205,
      "SeBr3": 9206,
      "SeCd4": 9207,
      "SeBr4": 9208,
      "AsY3": 9209,
      "AsP3": 9210,
      "AsBr3": 9211,
      "AsO4": 9212,
      "BrC": 9213,
      "BrBr": 9214,
      "BrLi3": 9215,
      "BrTi3": 9216,
      "BrHf4": 9217,
      "BrNb4": 9218,
      "ClK3": 9219,
      "ClSr4": 9220,
      "ClNa4": 9221,
      "nerite": 9222,
      "monochloro": 9223,
      "1279": 9224,
      "780": 9225,
      "237": 9226,
      "8049": 9227,
      "247": 9228,
      "2435": 9229,
      "RbB": 9230,
      "RbW": 9231,
      "Rb12": 9232,
      "RbEr": 9233,
      "RbNd": 9234,
      "RbPu": 9235,
      "RbK2": 9236,
      "RbGd2": 9237,
      "RbNp2": 9238,
      "RbF6": 9239,
      "Pota": 9240,
      "CsSe": 9241,
      "CsEr": 9242,
      "CsDy": 9243,
      "CsLi2": 9244,
      "CsPt3": 9245,
      "CeCu": 9246,
      "CeCd": 9247,
      "CeCr2": 9248,
      "CeOs2": 9249,
      "CeIr2": 9250,
      "ErEu": 9251,
      "ErGd2": 9252,
      "ErHo2": 9253,
      "Sm8": 9254,
      "SmSe": 9255,
      "DyN": 9256,
      "DyAu": 9257,
      "DyN6": 9258,
      "GdCo": 9259,
      "GdEu": 9260,
      "GdNd2": 9261,
      "NpCu": 9262,
      "NpPd": 9263,
      "NpLu": 9264,
      "NpLa2": 9265,
      "NpLu2": 9266,
      "NpU2": 9267,
      "NpTh2": 9268,
      "Ho6": 9269,
      "HoTb": 9270,
      "LuPm": 9271,
      "LuNi2": 9272,
      "TmLa": 9273,
      "TmGd2": 9274,
      "PuU": 9275,
      "PuLu": 9276,
      "PuPm": 9277,
      "PuPa2": 9278,
      "PaGa": 9279,
      "PaTh": 9280,
      "PaLu2": 9281,
      "PaHo2": 9282,
      "EuFe": 9283,
      "EuPr": 9284,
      "ThHo": 9285,
      "ThYb": 9286,
      "PmMn": 9287,
      "PmOs2": 9288,
      "tene": 9289,
      "PrSc": 9290,
      "PrCe": 9291,
      "Yb6": 9292,
      "YbPd": 9293,
      "YbLa2": 9294,
      "YbPm2": 9295,
      "TbCo": 9296,
      "TbSm2": 9297,
      "AcEr": 9298,
      "Ba2Se": 9299,
      "Ba2Te3": 9300,
      "Ba2PdCd": 9301,
      "Ba2AuHg": 9302,
      "Ba2MnAu": 9303,
      "Ba2IrAl": 9304,
      "Ba2MoCo": 9305,
      "Ba2ScAs": 9306,
      "Ba2MgCl": 9307,
      "Zr2W": 9308,
      "Zr2Al": 9309,
      "Zr2Pt": 9310,
      "Zr2Mn": 9311,
      "Zr2Cr": 9312,
      "Zr2RhZn": 9313,
      "Zr2NiBi": 9314,
      "Zr2WPt": 9315,
      "Zr2ON2": 9316,
      "Sr2C": 9317,
      "Sr2In": 9318,
      "Sr2TcPd": 9319,
      "Sr2BiSb": 9320,
      "Sr2CaHg": 9321,
      "Sr2VBi": 9322,
      "Mg2C": 9323,
      "Mg2Sn": 9324,
      "Mg2Pb": 9325,
      "Mg2Ge": 9326,
      "Mg2In3": 9327,
      "Mg2Zr4": 9328,
      "Mg2CuZn": 9329,
      "La2AgBi": 9330,
      "Sn2O7": 9331,
      "Pb2O3": 9332,
      "K2Al": 9333,
      "K2Mg": 9334,
      "K2Sb": 9335,
      "K2MoP": 9336,
      "Bi2O5": 9337,
      "Tl2Cl3": 9338,
      "Nb2W": 9339,
      "Nb2Si": 9340,
      "Nb2Ag2": 9341,
      "Nb2CoSn": 9342,
      "Nb2BiSe": 9343,
      "Si2O7": 9344,
      "Sc2HgIn": 9345,
      "Sc2AsBr": 9346,
      "Sc2BGe": 9347,
      "Sc2CoTe": 9348,
      "Ti2Pd": 9349,
      "Ti2TaAg": 9350,
      "Ti2HgGe": 9351,
      "Hf2Fe": 9352,
      "Hf2Pb": 9353,
      "Hf2Si": 9354,
      "Hf2Ti3": 9355,
      "Hf2Sc3": 9356,
      "Hf2TiRe": 9357,
      "Hf2NiIn": 9358,
      "Hf2PtSn": 9359,
      "Hf2TiSn": 9360,
      "Hf2MnPt": 9361,
      "Hf2AsCl": 9362,
      "Hf2MnRu": 9363,
      "Al2O": 9364,
      "Li2Np": 9365,
      "Li2Lu": 9366,
      "Li2Ac": 9367,
      "Li2CaPd": 9368,
      "Li2AlGe": 9369,
      "Li2BaIn": 9370,
      "Y2Co": 9371,
      "Y2GeSe": 9372,
      "Fe2P": 9373,
      "Fe2Cl": 9374,
      "Fe2O3": 9375,
      "Fe2CuAl": 9376,
      "Fe2TiP": 9377,
      "Cu2TlGe": 9378,
      "Na2Gd": 9379,
      "Na2Th": 9380,
      "Na2LiW": 9381,
      "Na2TlSi": 9382,
      "Na2FeP": 9383,
      "Na2CuSe": 9384,
      "Na2ZrBi": 9385,
      "Ag2Al3": 9386,
      "Ag2Br3": 9387,
      "Ag2InSn": 9388,
      "Ag2SnTe": 9389,
      "V2Pd6": 9390,
      "V2WSn": 9391,
      "Ca2MnRh": 9392,
      "Ca2LaMo": 9393,
      "Ta2Co": 9394,
      "Ta2Te": 9395,
      "Ta2CdSi": 9396,
      "Ta2IrPd": 9397,
      "W2Ge": 9398,
      "oxetane": 9399,
      "Mn2Rh": 9400,
      "Mn2Hg": 9401,
      "Mn2ZnGe": 9402,
      "Ni2Zr": 9403,
      "Ga2C": 9404,
      "N2Cl": 9405,
      "Co2Cd": 9406,
      "As2C": 9407,
      "Mo2TlBr": 9408,
      "Cr2Pd": 9409,
      "Cr2In2": 9410,
      "Cr2GaTe": 9411,
      "Rh2Fe": 9412,
      "Ru2C": 9413,
      "Be2Tl": 9414,
      "Tc2Ni": 9415,
      "Ba3Ni": 9416,
      "Ba3Tc": 9417,
      "K3W": 9418,
      "K3Co": 9419,
      "K3Sc": 9420,
      "K3Na": 9421,
      "K3Os": 9422,
      "K3Cr": 9423,
      "K3Pb2": 9424,
      "Sr3Fe": 9425,
      "Sr3Hf": 9426,
      "Sr3Si": 9427,
      "Sr3As": 9428,
      "Sr3Pb2": 9429,
      "Sr3Ru4": 9430,
      "Sr3LiMn": 9431,
      "Sr3CaNb": 9432,
      "La4Co3": 9433,
      "La4Cr3": 9434,
      "Ca3Cr": 9435,
      "Ca3Be": 9436,
      "Ca3Ru2": 9437,
      "Ca3P4": 9438,
      "Ca3Te4": 9439,
      "Au3Pb": 9440,
      "Au3Ga": 9441,
      "Y4Si": 9442,
      "Y4Bi3": 9443,
      "Li3V": 9444,
      "Li3Sc": 9445,
      "Li3Hf4": 9446,
      "Na3B": 9447,
      "Na3Co": 9448,
      "Na3Ni": 9449,
      "Na3Pb": 9450,
      "Na3Tc": 9451,
      "Na3Os": 9452,
      "Na3Ge2": 9453,
      "Na3Ti4": 9454,
      "Na3LaTc": 9455,
      "Na3CaNb": 9456,
      "hypofluor": 9457,
      "Pd3Ni": 9458,
      "Pd3Ag": 9459,
      "Pd3Cd": 9460,
      "Pd3Te": 9461,
      "La3Pt": 9462,
      "La3Ru": 9463,
      "La3Zr4": 9464,
      "La3Pd4": 9465,
      "La3Ir4": 9466,
      "La3ZrGa": 9467,
      "K4As3": 9468,
      "K4Ta4": 9469,
      "K4Re3": 9470,
      "K4AlP": 9471,
      "Y3Nb": 9472,
      "Y3Ba": 9473,
      "Y3Be": 9474,
      "Y3Nb4": 9475,
      "Mg3Ca": 9476,
      "Mg3Pt": 9477,
      "Mg3Ag": 9478,
      "Mg3As": 9479,
      "Al3B": 9480,
      "Al3C": 9481,
      "Al3V": 9482,
      "Al3Ge": 9483,
      "Al3Pb2": 9484,
      "Al3Tl4": 9485,
      "Fe3B": 9486,
      "Fe3F": 9487,
      "Fe3Al": 9488,
      "Fe3Rh": 9489,
      "Fe3Hg": 9490,
      "Fe3Ag5": 9491,
      "Ca4Si": 9492,
      "Ca4Se3": 9493,
      "Ca4P3": 9494,
      "Ca4Hf3": 9495,
      "Ca4Sc3": 9496,
      "Ca4Au4": 9497,
      "Zn3Zr": 9498,
      "Cu3B": 9499,
      "Cu3Bi4": 9500,
      "Cu3Sb4": 9501,
      "Cu3W4": 9502,
      "Cu3Ge4": 9503,
      "C2H2": 9504,
      "Ag3Mg": 9505,
      "Ag3Cu": 9506,
      "Ag3Hg": 9507,
      "Hg3W4": 9508,
      "Ni3Cr": 9509,
      "Ni3Pd4": 9510,
      "Ni3P4": 9511,
      "Ni3Se4": 9512,
      "Hf3B": 9513,
      "Hf3C": 9514,
      "Hf3Al3": 9515,
      "Hf3Sc4": 9516,
      "Hf3Tl4": 9517,
      "Pt3Y": 9518,
      "Pt3Sb": 9519,
      "Cd3Si": 9520,
      "Cd3Se": 9521,
      "Cd3Co3": 9522,
      "Rh3Au": 9523,
      "Rh3Hg": 9524,
      "Mn3Sn": 9525,
      "Mn3W4": 9526,
      "Mn3AgBi": 9527,
      "In3Bi4": 9528,
      "Sr4Pd3": 9529,
      "Sr4Hf3": 9530,
      "Sr4P4": 9531,
      "Sr4Mn4": 9532,
      "Zr3B": 9533,
      "Zr3Fe": 9534,
      "Zr3Pt": 9535,
      "Zr3Rh": 9536,
      "Zr3Os": 9537,
      "Zr3Ni3": 9538,
      "Zr3Tl4": 9539,
      "Zr3W4": 9540,
      "Pb4P": 9541,
      "Ti3P": 9542,
      "Ti3W": 9543,
      "Ti3Tl": 9544,
      "Sn4Sb": 9545,
      "Sn4P3": 9546,
      "Sn4B3": 9547,
      "Ta3Te": 9548,
      "Ta3Ag4": 9549,
      "Si3Rh9": 9550,
      "Nb3Cd": 9551,
      "Nb3Rh": 9552,
      "Nb3Tl": 9553,
      "Nb3Cr": 9554,
      "Nb3Se": 9555,
      "Mo3Pb": 9556,
      "Sc3Pd": 9557,
      "Sc3Ag": 9558,
      "Sc3Te": 9559,
      "Sc3Pb4": 9560,
      "Sc3Sb4": 9561,
      "Sc3Ta4": 9562,
      "Zr4In3": 9563,
      "As3I": 9564,
      "As3S": 9565,
      "Co3Cu3": 9566,
      "B3Sn": 9567,
      "B3Os4": 9568,
      "B3Rh4": 9569,
      "V3P": 9570,
      "V3W": 9571,
      "V3Hg2": 9572,
      "V3Mo3": 9573,
      "W3Mg": 9574,
      "Tl3P": 9575,
      "Tl3As": 9576,
      "Tl3Ga4": 9577,
      "Be3Cr": 9578,
      "Be3Re5": 9579,
      "Bi4As": 9580,
      "Bi4Te3": 9581,
      "Fe4Se3": 9582,
      "Fe4Os3": 9583,
      "Fe4Tc3": 9584,
      "Os3Se": 9585,
      "Os3Br": 9586,
      "Os3Cl": 9587,
      "Os3Rh9": 9588,
      "O4Cl": 9589,
      "borohydride": 9590,
      "Mg4Al3": 9591,
      "Mg4Cd3": 9592,
      "Ba4Os": 9593,
      "Ba4Sc8": 9594,
      "Na4Zr3": 9595,
      "Na4Au4": 9596,
      "Hf4Cu3": 9597,
      "Hf4Nb3": 9598,
      "Hf4Zr4": 9599,
      "Hf4V3": 9600,
      "Hf4Tl3": 9601,
      "Sb4Se": 9602,
      "Sb4Pd3": 9603,
      "Ru3Pb": 9604,
      "Sc4Au3": 9605,
      "Sc4Br3": 9606,
      "Nb4Fe3": 9607,
      "Nb4Tl4": 9608,
      "Nb4Tl8": 9609,
      "Ti4Cl3": 9610,
      "Cd4In": 9611,
      "Cd4Ga": 9612,
      "Cd4Se3": 9613,
      "Cd4Cu3": 9614,
      "Cd4Br3": 9615,
      "Ta4Pb3": 9616,
      "Ta4Cd3": 9617,
      "Ta4Nb3": 9618,
      "Ta4Co3": 9619,
      "Tl4P3": 9620,
      "Tl4Rh3": 9621,
      "Re3Rh": 9622,
      "Pd4Sb": 9623,
      "Li4Y4": 9624,
      "Li4Cr3": 9625,
      "Li4Be4": 9626,
      "P4Te": 9627,
      "Mn4Bi3": 9628,
      "Mn4Zn3": 9629,
      "Mn4Fe4": 9630,
      "Mn4Ir3": 9631,
      "Mn4Tc3": 9632,
      "Cu4Bi": 9633,
      "Cu4As": 9634,
      "Cu4Ni3": 9635,
      "Ni4Cd": 9636,
      "Ni4Au": 9637,
      "Pt4Au": 9638,
      "Co4Br": 9639,
      "Co4P3": 9640,
      "Co4As3": 9641,
      "Ag4Sb": 9642,
      "Ag4As": 9643,
      "Hg4Sb": 9644,
      "molybdan": 9645,
      "Ir4Te": 9646,
      "Ir4Pb3": 9647,
      "Cr4Pb": 9648,
      "Cr4In4": 9649,
      "Ge4Rh4": 9650,
      "B4Rh4": 9651,
      "Si4Bi": 9652,
      "Si4Cl": 9653,
      "Tc4B3": 9654,
      "CaMgCu": 9655,
      "NaSrRu": 9656,
      "NaSrTa2": 9657,
      "selenone": 9658,
[...]
